{"version":"1.0","truncation":null,"padding":null,"added_tokens":[{"id":0,"content":"[PAD]","single_word":false,"lstrip":false,"rstrip":false,"normalized":false,"special":true},{"id":100,"content":"[UNK]","single_word":false,"lstrip":false,"rstrip":false,"normalized":false,"special":true},{"id":101,"content":"[CLS]","single_word":false,"lstrip":false,"rstrip":false,"normalized":false,"special":true},{"id":102,"content":"[SEP]","single_word":false,"lstrip":false,"rstrip":false,"normalized":false,"special":true},{"id":103,"content":"[MASK]","single_word":false,"lstrip":false,"rstrip":false,"normalized":false,"special":true}],"normalizer":{"type":"BertNormalizer","clean_text":true,"handle_chinese_chars":true,"strip_accents":null,"lowercase":true},"pre_tokenizer":{"type":"BertPreTokenizer"},"post_processor":{"type":"TemplateProcessing","single":[{"SpecialToken":{"id":"[CLS]","type_id":0}},{"Sequence":{"id":"A","type_id":0}},{"SpecialToken":{"id":"[SEP]","type_id":0}}],"pair":[{"SpecialToken":{"id":"[CLS]","type_id":0}},{"Sequence":{"id":"A","type_id":0}},{"SpecialToken":{"id":"[SEP]","type_id":0}},{"Sequence":{"id":"B","type_id":1}},{"SpecialToken":{"id":"[SEP]","type_id":1}}],"special_tokens":{"[CLS]":{"id":"[CLS]","ids":[101],"tokens":["[CLS]"]},"[SEP]":{"id":"[SEP]","ids":[102],"tokens":["[SEP]"]}}},"decoder":{"type":"WordPiece","prefix":"##","cleanup":true},"model":{"type":"WordPiece","unk_token":"[UNK]","continuing_subword_prefix":"##","max_input_chars_per_word":100,"vocab":{"[PAD]":0,"[unused1]":1,"[unused2]":2,"[unused3]":3,"[unused4]":4,"[unused5]":5,"[unused6]":6,"[unused7]":7,"[unused8]":8,"[unused9]":9,"[unused10]":10,"[unused11]":11,"[unused12]":12,"[unused13]":13,"[unused14]":14,"[unused15]":15,"[unused16]":16,"[unused17]":17,"[unused18]":18,"[unused19]":19,"[unused20]":20,"[unused21]":21,"[unused22]":22,"[unused23]":23,"[unused24]":24,"[unused25]":25,"[unused26]":26,"[unused27]":27,"[unused28]":28,"[unused29]":29,"[unused30]":30,"[unused31]":31,"[unused32]":32,"[unused33]":33,"[unused34]":34,"[unused35]":35,"[unused36]":36,"[unused37]":37,"[unused38]":38,"[unused39]":39,"[unused40]":40,"[unused41]":41,"[unused42]":42,"[unused43]":43,"[unused44]":44,"[unused45]":45,"[unused46]":46,"[unused47]":47,"[unused48]":48,"[unused49]":49,"[unused50]":50,"[unused51]":51,"[unused52]":52,"[unused53]":53,"[unused54]":54,"[unused55]":55,"[unused56]":56,"[unused57]":57,"[unused58]":58,"[unused59]":59,"[unused60]":60,"[unused61]":61,"[unused62]":62,"[unused63]":63,"[unused64]":64,"[unused65]":65,"[unused66]":66,"[unused67]":67,"[unused68]":68,"[unused69]":69,"[unused70]":70,"[unused71]":71,"[unused72]":72,"[unused73]":73,"[unused74]":74,"[unused75]":75,"[unused76]":76,"[unused77]":77,"[unused78]":78,"[unused79]":79,"[unused80]":80,"[unused81]":81,"[unused82]":82,"[unused83]":83,"[unused84]":84,"[unused85]":85,"[unused86]":86,"[unused87]":87,"[unused88]":88,"[unused89]":89,"[unused90]":90,"[unused91]":91,"[unused92]":92,"[unused93]":93,"[unused94]":94,"[unused95]":95,"[unused96]":96,"[unused97]":97,"[unused98]":98,"[unused99]":99,"[UNK]":100,"[CLS]":101,"[SEP]":102,"[MASK]":103,"<S>":104,"<T>":105,"!":106,"\"":107,"#":108,"$":109,"%":110,"&":111,"'":112,"(":113,")":114,"*":115,"+":116,",":117,"-":118,".":119,"/":120,"0":121,"1":122,"2":123,"3":124,"4":125,"5":126,"6":127,"7":128,"8":129,"9":130,":":131,";":132,"<":133,"=":134,">":135,"?":136,"@":137,"[":138,"\\":139,"]":140,"^":141,"_":142,"a":143,"b":144,"c":145,"d":146,"e":147,"f":148,"g":149,"h":150,"i":151,"j":152,"k":153,"l":154,"m":155,"n":156,"o":157,"p":158,"q":159,"r":160,"s":161,"t":162,"u":163,"v":164,"w":165,"x":166,"y":167,"z":168,"{":169,"|":170,"}":171,"~":172,"\u00a1":173,"\u00a2":174,"\u00a3":175,"\u00a4":176,"\u00a5":177,"\u00a6":178,"\u00a7":179,"\u00a8":180,"\u00a9":181,"\u00aa":182,"\u00ab":183,"\u00ac":184,"\u00ae":185,"\u00af":186,"\u00b0":187,"\u00b1":188,"\u00b2":189,"\u00b3":190,"\u00b5":191,"\u00b6":192,"\u00b7":193,"\u00b9":194,"\u00ba":195,"\u00bb":196,"\u00bc":197,"\u00bd":198,"\u00be":199,"\u00bf":200,"\u00d7":201,"\u00df":202,"\u00e6":203,"\u00f0":204,"\u00f7":205,"\u00f8":206,"\u00fe":207,"\u0111":208,"\u0127":209,"\u0131":210,"\u0133":211,"\u0142":212,"\u0149":213,"\u014b":214,"\u0153":215,"\u017f":216,"\u0192":217,"\u01c1":218,"\u0250":219,"\u0251":220,"\u0252":221,"\u0253":222,"\u0254":223,"\u0255":224,"\u0259":225,"\u025b":226,"\u025f":227,"\u0261":228,"\u0263":229,"\u0264":230,"\u0266":231,"\u0268":232,"\u026a":233,"\u026b":234,"\u026c":235,"\u026f":236,"\u0272":237,"\u0274":238,"\u0278":239,"\u0279":240,"\u027e":241,"\u0280":242,"\u0281":243,"\u0282":244,"\u0283":245,"\u0289":246,"\u028a":247,"\u028b":248,"\u028c":249,"\u028e":250,"\u0290":251,"\u0291":252,"\u0292":253,"\u0294":254,"\u0295":255,"\u0299":256,"\u029d":257,"\u02a4":258,"\u02a6":259,"\u02a7":260,"\u02b0":261,"\u02b2":262,"\u02b3":263,"\u02b7":264,"\u02b8":265,"\u02bb":266,"\u02bc":267,"\u02be":268,"\u02bf":269,"\u02c1":270,"\u02c8":271,"\u02cb":272,"\u02cc":273,"\u02d0":274,"\u02d9":275,"\u02da":276,"\u02e1":277,"\u02e2":278,"\u02e3":279,"\u0384":280,"\u03b1":281,"\u03b2":282,"\u03b3":283,"\u03b4":284,"\u03b5":285,"\u03b6":286,"\u03b7":287,"\u03b8":288,"\u03b9":289,"\u03ba":290,"\u03bb":291,"\u03bc":292,"\u03bd":293,"\u03be":294,"\u03bf":295,"\u03c0":296,"\u03c1":297,"\u03c2":298,"\u03c3":299,"\u03c4":300,"\u03c5":301,"\u03c6":302,"\u03c7":303,"\u03c8":304,"\u03c9":305,"\u03d5":306,"\u0430":307,"\u0431":308,"\u0432":309,"\u0433":310,"\u0434":311,"\u0435":312,"\u0436":313,"\u0437":314,"\u0438":315,"\u043a":316,"\u043b":317,"\u043c":318,"\u043d":319,"\u043e":320,"\u043f":321,"\u0440":322,"\u0441":323,"\u0442":324,"\u0443":325,"\u0444":326,"\u0445":327,"\u0446":328,"\u0447":329,"\u0448":330,"\u0449":331,"\u044a":332,"\u044b":333,"\u044c":334,"\u044d":335,"\u044e":336,"\u044f":337,"\u0452":338,"\u0454":339,"\u0455":340,"\u0456":341,"\u0458":342,"\u0459":343,"\u045a":344,"\u045b":345,"\u045f":346,"\u0463":347,"\u0467":348,"\u046b":349,"\u0473":350,"\u0491":351,"\u0493":352,"\u0497":353,"\u0499":354,"\u049b":355,"\u04a1":356,"\u04a3":357,"\u04ab":358,"\u04af":359,"\u04b1":360,"\u04b3":361,"\u04b7":362,"\u04b9":363,"\u04bb":364,"\u04ca":365,"\u04cf":366,"\u04d9":367,"\u04e9":368,"\u055a":369,"\u055b":370,"\u055c":371,"\u055d":372,"\u055e":373,"\u0561":374,"\u0562":375,"\u0563":376,"\u0564":377,"\u0565":378,"\u0566":379,"\u0567":380,"\u0568":381,"\u0569":382,"\u056a":383,"\u056b":384,"\u056c":385,"\u056d":386,"\u056e":387,"\u056f":388,"\u0570":389,"\u0571":390,"\u0572":391,"\u0573":392,"\u0574":393,"\u0575":394,"\u0576":395,"\u0577":396,"\u0578":397,"\u0579":398,"\u057a":399,"\u057b":400,"\u057c":401,"\u057d":402,"\u057e":403,"\u057f":404,"\u0580":405,"\u0581":406,"\u0582":407,"\u0583":408,"\u0584":409,"\u0585":410,"\u0586":411,"\u0587":412,"\u0589":413,"\u058a":414,"\u05be":415,"\u05c3":416,"\u05d0":417,"\u05d1":418,"\u05d2":419,"\u05d3":420,"\u05d4":421,"\u05d5":422,"\u05d6":423,"\u05d7":424,"\u05d8":425,"\u05d9":426,"\u05da":427,"\u05db":428,"\u05dc":429,"\u05dd":430,"\u05de":431,"\u05df":432,"\u05e0":433,"\u05e1":434,"\u05e2":435,"\u05e3":436,"\u05e4":437,"\u05e5":438,"\u05e6":439,"\u05e7":440,"\u05e8":441,"\u05e9":442,"\u05ea":443,"\u05f3":444,"\u05f4":445,"\u060c":446,"\u060d":447,"\u061b":448,"\u061f":449,"\u0621":450,"\u0627":451,"\u0628":452,"\u0629":453,"\u062a":454,"\u062b":455,"\u062c":456,"\u062d":457,"\u062e":458,"\u062f":459,"\u0630":460,"\u0631":461,"\u0632":462,"\u0633":463,"\u0634":464,"\u0635":465,"\u0636":466,"\u0637":467,"\u0638":468,"\u0639":469,"\u063a":470,"\u0640":471,"\u0641":472,"\u0642":473,"\u0643":474,"\u0644":475,"\u0645":476,"\u0646":477,"\u0647":478,"\u0648":479,"\u0649":480,"\u064a":481,"\u0660":482,"\u0661":483,"\u0662":484,"\u0663":485,"\u0664":486,"\u0665":487,"\u0666":488,"\u0667":489,"\u0668":490,"\u0669":491,"\u066a":492,"\u066b":493,"\u066c":494,"\u066d":495,"\u0674":496,"\u0679":497,"\u067e":498,"\u0686":499,"\u0688":500,"\u0691":501,"\u0698":502,"\u06a0":503,"\u06a4":504,"\u06a9":505,"\u06ad":506,"\u06af":507,"\u06ba":508,"\u06be":509,"\u06c1":510,"\u06c3":511,"\u06c6":512,"\u06c7":513,"\u06cb":514,"\u06cc":515,"\u06ce":516,"\u06d2":517,"\u06d4":518,"\u06d5":519,"\u06f0":520,"\u06f1":521,"\u06f2":522,"\u06f3":523,"\u06f4":524,"\u06f5":525,"\u06f6":526,"\u06f7":527,"\u06f8":528,"\u06f9":529,"\u0768":530,"\u0903":531,"\u0905":532,"\u0906":533,"\u0907":534,"\u0908":535,"\u0909":536,"\u090a":537,"\u090b":538,"\u090d":539,"\u090e":540,"\u090f":541,"\u0910":542,"\u0911":543,"\u0912":544,"\u0913":545,"\u0914":546,"\u0915":547,"\u0916":548,"\u0917":549,"\u0918":550,"\u0919":551,"\u091a":552,"\u091b":553,"\u091c":554,"\u091d":555,"\u091e":556,"\u091f":557,"\u0920":558,"\u0921":559,"\u0922":560,"\u0923":561,"\u0924":562,"\u0925":563,"\u0926":564,"\u0927":565,"\u0928":566,"\u092a":567,"\u092b":568,"\u092c":569,"\u092d":570,"\u092e":571,"\u092f":572,"\u0930":573,"\u0932":574,"\u0933":575,"\u0935":576,"\u0936":577,"\u0937":578,"\u0938":579,"\u0939":580,"\u093d":581,"\u093e":582,"\u093f":583,"\u0940":584,"\u0949":585,"\u094a":586,"\u094b":587,"\u094c":588,"\u0950":589,"\u0960":590,"\u0964":591,"\u0965":592,"\u0966":593,"\u0967":594,"\u0968":595,"\u0969":596,"\u096a":597,"\u096b":598,"\u096c":599,"\u096d":600,"\u096e":601,"\u096f":602,"\u0970":603,"\u0972":604,"\u0982":605,"\u0983":606,"\u0985":607,"\u0986":608,"\u0987":609,"\u0988":610,"\u0989":611,"\u098a":612,"\u098b":613,"\u098f":614,"\u0990":615,"\u0993":616,"\u0994":617,"\u0995":618,"\u0996":619,"\u0997":620,"\u0998":621,"\u0999":622,"\u099a":623,"\u099b":624,"\u099c":625,"\u099d":626,"\u099e":627,"\u099f":628,"\u09a0":629,"\u09a1":630,"\u09a2":631,"\u09a3":632,"\u09a4":633,"\u09a5":634,"\u09a6":635,"\u09a7":636,"\u09a8":637,"\u09aa":638,"\u09ab":639,"\u09ac":640,"\u09ad":641,"\u09ae":642,"\u09af":643,"\u09b0":644,"\u09b2":645,"\u09b6":646,"\u09b7":647,"\u09b8":648,"\u09b9":649,"\u09be":650,"\u09bf":651,"\u09c0":652,"\u09c7":653,"\u09c8":654,"\u09ce":655,"\u09d7":656,"\u09e6":657,"\u09e7":658,"\u09e8":659,"\u09e9":660,"\u09ea":661,"\u09eb":662,"\u09ec":663,"\u09ed":664,"\u09ee":665,"\u09ef":666,"\u09f0":667,"\u09f1":668,"\u09f7":669,"\u0a05":670,"\u0a06":671,"\u0a07":672,"\u0a08":673,"\u0a09":674,"\u0a0a":675,"\u0a0f":676,"\u0a10":677,"\u0a13":678,"\u0a14":679,"\u0a15":680,"\u0a16":681,"\u0a17":682,"\u0a18":683,"\u0a1a":684,"\u0a1b":685,"\u0a1c":686,"\u0a1d":687,"\u0a1f":688,"\u0a20":689,"\u0a21":690,"\u0a22":691,"\u0a23":692,"\u0a24":693,"\u0a25":694,"\u0a26":695,"\u0a27":696,"\u0a28":697,"\u0a2a":698,"\u0a2b":699,"\u0a2c":700,"\u0a2d":701,"\u0a2e":702,"\u0a2f":703,"\u0a30":704,"\u0a32":705,"\u0a35":706,"\u0a38":707,"\u0a39":708,"\u0a3e":709,"\u0a3f":710,"\u0a40":711,"\u0a5c":712,"\u0a66":713,"\u0a67":714,"\u0a68":715,"\u0a69":716,"\u0a6a":717,"\u0a6b":718,"\u0a6c":719,"\u0a6d":720,"\u0a6e":721,"\u0a6f":722,"\u0a72":723,"\u0a73":724,"\u0a83":725,"\u0a85":726,"\u0a86":727,"\u0a87":728,"\u0a88":729,"\u0a89":730,"\u0a8a":731,"\u0a8b":732,"\u0a8d":733,"\u0a8f":734,"\u0a90":735,"\u0a91":736,"\u0a93":737,"\u0a94":738,"\u0a95":739,"\u0a96":740,"\u0a97":741,"\u0a98":742,"\u0a9a":743,"\u0a9b":744,"\u0a9c":745,"\u0a9d":746,"\u0a9e":747,"\u0a9f":748,"\u0aa0":749,"\u0aa1":750,"\u0aa2":751,"\u0aa3":752,"\u0aa4":753,"\u0aa5":754,"\u0aa6":755,"\u0aa7":756,"\u0aa8":757,"\u0aaa":758,"\u0aab":759,"\u0aac":760,"\u0aad":761,"\u0aae":762,"\u0aaf":763,"\u0ab0":764,"\u0ab2":765,"\u0ab3":766,"\u0ab5":767,"\u0ab6":768,"\u0ab7":769,"\u0ab8":770,"\u0ab9":771,"\u0abe":772,"\u0abf":773,"\u0ac0":774,"\u0ac9":775,"\u0acb":776,"\u0acc":777,"\u0ae6":778,"\u0ae7":779,"\u0ae8":780,"\u0ae9":781,"\u0aea":782,"\u0aeb":783,"\u0aec":784,"\u0aed":785,"\u0aee":786,"\u0aef":787,"\u0b83":788,"\u0b85":789,"\u0b86":790,"\u0b87":791,"\u0b88":792,"\u0b89":793,"\u0b8a":794,"\u0b8e":795,"\u0b8f":796,"\u0b90":797,"\u0b92":798,"\u0b93":799,"\u0b95":800,"\u0b99":801,"\u0b9a":802,"\u0b9c":803,"\u0b9e":804,"\u0b9f":805,"\u0ba3":806,"\u0ba4":807,"\u0ba8":808,"\u0ba9":809,"\u0baa":810,"\u0bae":811,"\u0baf":812,"\u0bb0":813,"\u0bb1":814,"\u0bb2":815,"\u0bb3":816,"\u0bb4":817,"\u0bb5":818,"\u0bb7":819,"\u0bb8":820,"\u0bb9":821,"\u0bbe":822,"\u0bbf":823,"\u0bc1":824,"\u0bc2":825,"\u0bc6":826,"\u0bc7":827,"\u0bc8":828,"\u0bd7":829,"\u0c01":830,"\u0c02":831,"\u0c03":832,"\u0c05":833,"\u0c06":834,"\u0c07":835,"\u0c08":836,"\u0c09":837,"\u0c0a":838,"\u0c0b":839,"\u0c0e":840,"\u0c0f":841,"\u0c10":842,"\u0c12":843,"\u0c13":844,"\u0c14":845,"\u0c15":846,"\u0c16":847,"\u0c17":848,"\u0c18":849,"\u0c19":850,"\u0c1a":851,"\u0c1b":852,"\u0c1c":853,"\u0c1d":854,"\u0c1e":855,"\u0c1f":856,"\u0c20":857,"\u0c21":858,"\u0c22":859,"\u0c23":860,"\u0c24":861,"\u0c25":862,"\u0c26":863,"\u0c27":864,"\u0c28":865,"\u0c2a":866,"\u0c2b":867,"\u0c2c":868,"\u0c2d":869,"\u0c2e":870,"\u0c2f":871,"\u0c30":872,"\u0c31":873,"\u0c32":874,"\u0c33":875,"\u0c35":876,"\u0c36":877,"\u0c37":878,"\u0c38":879,"\u0c39":880,"\u0c41":881,"\u0c42":882,"\u0c43":883,"\u0c82":884,"\u0c83":885,"\u0c85":886,"\u0c86":887,"\u0c87":888,"\u0c88":889,"\u0c89":890,"\u0c8a":891,"\u0c8b":892,"\u0c8e":893,"\u0c8f":894,"\u0c90":895,"\u0c92":896,"\u0c93":897,"\u0c94":898,"\u0c95":899,"\u0c96":900,"\u0c97":901,"\u0c98":902,"\u0c9a":903,"\u0c9b":904,"\u0c9c":905,"\u0c9d":906,"\u0c9e":907,"\u0c9f":908,"\u0ca0":909,"\u0ca1":910,"\u0ca2":911,"\u0ca3":912,"\u0ca4":913,"\u0ca5":914,"\u0ca6":915,"\u0ca7":916,"\u0ca8":917,"\u0caa":918,"\u0cab":919,"\u0cac":920,"\u0cad":921,"\u0cae":922,"\u0caf":923,"\u0cb0":924,"\u0cb2":925,"\u0cb3":926,"\u0cb5":927,"\u0cb6":928,"\u0cb7":929,"\u0cb8":930,"\u0cb9":931,"\u0cbe":932,"\u0cc1":933,"\u0cc2":934,"\u0cc3":935,"\u0cd5":936,"\u0cd6":937,"\u0ce6":938,"\u0ce7":939,"\u0ce8":940,"\u0ce9":941,"\u0cea":942,"\u0ceb":943,"\u0cec":944,"\u0ced":945,"\u0cee":946,"\u0cef":947,"\u0d02":948,"\u0d03":949,"\u0d05":950,"\u0d06":951,"\u0d07":952,"\u0d08":953,"\u0d09":954,"\u0d0a":955,"\u0d0b":956,"\u0d0e":957,"\u0d0f":958,"\u0d10":959,"\u0d12":960,"\u0d13":961,"\u0d14":962,"\u0d15":963,"\u0d16":964,"\u0d17":965,"\u0d18":966,"\u0d19":967,"\u0d1a":968,"\u0d1b":969,"\u0d1c":970,"\u0d1d":971,"\u0d1e":972,"\u0d1f":973,"\u0d20":974,"\u0d21":975,"\u0d22":976,"\u0d23":977,"\u0d24":978,"\u0d25":979,"\u0d26":980,"\u0d27":981,"\u0d28":982,"\u0d2a":983,"\u0d2b":984,"\u0d2c":985,"\u0d2d":986,"\u0d2e":987,"\u0d2f":988,"\u0d30":989,"\u0d31":990,"\u0d32":991,"\u0d33":992,"\u0d34":993,"\u0d35":994,"\u0d36":995,"\u0d37":996,"\u0d38":997,"\u0d39":998,"\u0d3e":999,"\u0d3f":1000,"\u0d40":1001,"\u0d46":1002,"\u0d47":1003,"\u0d48":1004,"\u0d57":1005,"\u0d67":1006,"\u0d68":1007,"\u0d7a":1008,"\u0d7b":1009,"\u0d7c":1010,"\u0d7d":1011,"\u0d7e":1012,"\u0d7f":1013,"\u0d9a":1014,"\u0daf":1015,"\u0db4":1016,"\u0db8":1017,"\u0dba":1018,"\u0dbb":1019,"\u0dbd":1020,"\u0dc1":1021,"\u0dcf":1022,"\u0dd9":1023,"\u0e01":1024,"\u0e02":1025,"\u0e04":1026,"\u0e07":1027,"\u0e08":1028,"\u0e14":1029,"\u0e15":1030,"\u0e17":1031,"\u0e19":1032,"\u0e1a":1033,"\u0e1b":1034,"\u0e20":1035,"\u0e21":1036,"\u0e22":1037,"\u0e23":1038,"\u0e25":1039,"\u0e27":1040,"\u0e2a":1041,"\u0e2b":1042,"\u0e2d":1043,"\u0e32":1044,"\u0e33":1045,"\u0e40":1046,"\u0e41":1047,"\u0e44":1048,"\u0f0b":1049,"\u0f0d":1050,"\u0f40":1051,"\u0f41":1052,"\u0f42":1053,"\u0f44":1054,"\u0f46":1055,"\u0f51":1056,"\u0f53":1057,"\u0f54":1058,"\u0f55":1059,"\u0f56":1060,"\u0f58":1061,"\u0f5a":1062,"\u0f5f":1063,"\u0f60":1064,"\u0f62":1065,"\u0f63":1066,"\u0f64":1067,"\u0f66":1068,"\u1000":1069,"\u1001":1070,"\u1002":1071,"\u1003":1072,"\u1004":1073,"\u1005":1074,"\u1006":1075,"\u1007":1076,"\u1008":1077,"\u1009":1078,"\u100a":1079,"\u100b":1080,"\u100c":1081,"\u100d":1082,"\u100f":1083,"\u1010":1084,"\u1011":1085,"\u1012":1086,"\u1013":1087,"\u1014":1088,"\u1015":1089,"\u1016":1090,"\u1017":1091,"\u1018":1092,"\u1019":1093,"\u101a":1094,"\u101b":1095,"\u101c":1096,"\u101d":1097,"\u101e":1098,"\u101f":1099,"\u1020":1100,"\u1021":1101,"\u1024":1102,"\u1025":1103,"\u1027":1104,"\u1029":1105,"\u102b":1106,"\u102c":1107,"\u1031":1108,"\u1038":1109,"\u103b":1110,"\u103c":1111,"\u103f":1112,"\u1040":1113,"\u1041":1114,"\u1042":1115,"\u1043":1116,"\u1044":1117,"\u1045":1118,"\u1046":1119,"\u1047":1120,"\u1048":1121,"\u1049":1122,"\u104a":1123,"\u104b":1124,"\u104c":1125,"\u104d":1126,"\u104e":1127,"\u104f":1128,"\u10d0":1129,"\u10d1":1130,"\u10d2":1131,"\u10d3":1132,"\u10d4":1133,"\u10d5":1134,"\u10d6":1135,"\u10d7":1136,"\u10d8":1137,"\u10d9":1138,"\u10da":1139,"\u10db":1140,"\u10dc":1141,"\u10dd":1142,"\u10de":1143,"\u10df":1144,"\u10e0":1145,"\u10e1":1146,"\u10e2":1147,"\u10e3":1148,"\u10e4":1149,"\u10e5":1150,"\u10e6":1151,"\u10e7":1152,"\u10e8":1153,"\u10e9":1154,"\u10ea":1155,"\u10eb":1156,"\u10ec":1157,"\u10ed":1158,"\u10ee":1159,"\u10ef":1160,"\u10f0":1161,"\u10f2":1162,"\u1100":1163,"\u1101":1164,"\u1102":1165,"\u1103":1166,"\u1104":1167,"\u1105":1168,"\u1106":1169,"\u1107":1170,"\u1108":1171,"\u1109":1172,"\u110a":1173,"\u110b":1174,"\u110c":1175,"\u110d":1176,"\u110e":1177,"\u110f":1178,"\u1110":1179,"\u1111":1180,"\u1112":1181,"\u1161":1182,"\u1162":1183,"\u1163":1184,"\u1164":1185,"\u1165":1186,"\u1166":1187,"\u1167":1188,"\u1168":1189,"\u1169":1190,"\u116a":1191,"\u116b":1192,"\u116c":1193,"\u116d":1194,"\u116e":1195,"\u116f":1196,"\u1170":1197,"\u1171":1198,"\u1172":1199,"\u1173":1200,"\u1174":1201,"\u1175":1202,"\u11a8":1203,"\u11a9":1204,"\u11aa":1205,"\u11ab":1206,"\u11ac":1207,"\u11ad":1208,"\u11ae":1209,"\u11af":1210,"\u11b0":1211,"\u11b1":1212,"\u11b2":1213,"\u11b5":1214,"\u11b6":1215,"\u11b7":1216,"\u11b8":1217,"\u11b9":1218,"\u11ba":1219,"\u11bb":1220,"\u11bc":1221,"\u11bd":1222,"\u11be":1223,"\u11bf":1224,"\u11c0":1225,"\u11c1":1226,"\u11c2":1227,"\u16eb":1228,"\u16ec":1229,"\u1820":1230,"\u1828":1231,"\u182c":1232,"\u182d":1233,"\u1830":1234,"\u1873":1235,"\u1d2c":1236,"\u1d2e":1237,"\u1d30":1238,"\u1d35":1239,"\u1d36":1240,"\u1d37":1241,"\u1d3a":1242,"\u1d3c":1243,"\u1d3e":1244,"\u1d3f":1245,"\u1d40":1246,"\u1d42":1247,"\u1d43":1248,"\u1d47":1249,"\u1d48":1250,"\u1d49":1251,"\u1d4d":1252,"\u1d4f":1253,"\u1d50":1254,"\u1d52":1255,"\u1d56":1256,"\u1d57":1257,"\u1d58":1258,"\u1d5b":1259,"\u1d62":1260,"\u1d63":1261,"\u1d64":1262,"\u1d65":1263,"\u1d9c":1264,"\u1da0":1265,"\u1dbb":1266,"\u1fbd":1267,"\u2016":1268,"\u201a":1269,"\u201b":1270,"\u201e":1271,"\u201f":1272,"\u2020":1273,"\u2021":1274,"\u2022":1275,"\u2024":1276,"\u2025":1277,"\u2027":1278,"\u2028":1279,"\u2030":1280,"\u2032":1281,"\u2033":1282,"\u2039":1283,"\u203a":1284,"\u203b":1285,"\u203c":1286,"\u203f":1287,"\u2044":1288,"\u2070":1289,"\u2071":1290,"\u2074":1291,"\u2075":1292,"\u2076":1293,"\u2077":1294,"\u2078":1295,"\u2079":1296,"\u207a":1297,"\u207b":1298,"\u207e":1299,"\u207f":1300,"\u2080":1301,"\u2081":1302,"\u2082":1303,"\u2083":1304,"\u2084":1305,"\u2085":1306,"\u2086":1307,"\u2087":1308,"\u2088":1309,"\u2089":1310,"\u208a":1311,"\u208d":1312,"\u208e":1313,"\u2090":1314,"\u2091":1315,"\u2092":1316,"\u2093":1317,"\u2095":1318,"\u2096":1319,"\u2097":1320,"\u2098":1321,"\u2099":1322,"\u209a":1323,"\u209b":1324,"\u209c":1325,"\u20a4":1326,"\u20a9":1327,"\u20aa":1328,"\u20ac":1329,"\u20b1":1330,"\u20b4":1331,"\u20b9":1332,"\u2102":1333,"\u2103":1334,"\u2113":1335,"\u2115":1336,"\u2116":1337,"\u211a":1338,"\u211d":1339,"\u2122":1340,"\u2124":1341,"\u2153":1342,"\u2154":1343,"\u215b":1344,"\u2170":1345,"\u2171":1346,"\u2172":1347,"\u2173":1348,"\u2174":1349,"\u2175":1350,"\u2176":1351,"\u2190":1352,"\u2191":1353,"\u2192":1354,"\u2193":1355,"\u2194":1356,"\u2197":1357,"\u21a6":1358,"\u21ba":1359,"\u21c4":1360,"\u21cc":1361,"\u21d2":1362,"\u21d4":1363,"\u21e7":1364,"\u2200":1365,"\u2202":1366,"\u2203":1367,"\u2205":1368,"\u2206":1369,"\u2207":1370,"\u2208":1371,"\u2211":1372,"\u2212":1373,"\u2215":1374,"\u2217":1375,"\u2218":1376,"\u2219":1377,"\u221a":1378,"\u221e":1379,"\u2225":1380,"\u2227":1381,"\u2228":1382,"\u2229":1383,"\u222a":1384,"\u222b":1385,"\u2234":1386,"\u223c":1387,"\u2245":1388,"\u2248":1389,"\u2252":1390,"\u2261":1391,"\u2264":1392,"\u2265":1393,"\u226a":1394,"\u226b":1395,"\u2282":1396,"\u2283":1397,"\u2286":1398,"\u2295":1399,"\u2297":1400,"\u2299":1401,"\u229e":1402,"\u22a5":1403,"\u22c5":1404,"\u22ef":1405,"\u2460":1406,"\u2461":1407,"\u2462":1408,"\u2463":1409,"\u2464":1410,"\u2465":1411,"\u2466":1412,"\u2467":1413,"\u24d0":1414,"\u2500":1415,"\u2501":1416,"\u2502":1417,"\u2503":1418,"\u250f":1419,"\u2513":1420,"\u2514":1421,"\u2517":1422,"\u251b":1423,"\u251c":1424,"\u2523":1425,"\u252b":1426,"\u252c":1427,"\u2533":1428,"\u2551":1429,"\u2571":1430,"\u2588":1431,"\u25a0":1432,"\u25a1":1433,"\u25aa":1434,"\u25ac":1435,"\u25ad":1436,"\u25b2":1437,"\u25b3":1438,"\u25b6":1439,"\u25ba":1440,"\u25bc":1441,"\u25bd":1442,"\u25c6":1443,"\u25c7":1444,"\u25ca":1445,"\u25cb":1446,"\u25cc":1447,"\u25ce":1448,"\u25cf":1449,"\u25e1":1450,"\u25e6":1451,"\u25ef":1452,"\u2605":1453,"\u2606":1454,"\u2609":1455,"\u2640":1456,"\u2642":1457,"\u2655":1458,"\u2656":1459,"\u2657":1460,"\u2658":1461,"\u2659":1462,"\u2660":1463,"\u2661":1464,"\u2663":1465,"\u2665":1466,"\u2666":1467,"\u266a":1468,"\u266d":1469,"\u266f":1470,"\u26ad":1471,"\u271d":1472,"\u27e8":1473,"\u27e9":1474,"\u27ea":1475,"\u27eb":1476,"\u27f6":1477,"\u2c7c":1478,"\u2d4f":1479,"\u2ea9":1480,"\u2f65":1481,"\u3001":1482,"\u3002":1483,"\u3003":1484,"\u3005":1485,"\u3006":1486,"\u3007":1487,"\u3008":1488,"\u3009":1489,"\u300a":1490,"\u300b":1491,"\u300c":1492,"\u300d":1493,"\u300e":1494,"\u300f":1495,"\u3010":1496,"\u3011":1497,"\u3012":1498,"\u3014":1499,"\u3015":1500,"\u3016":1501,"\u3017":1502,"\u301c":1503,"\u301d":1504,"\u301e":1505,"\u301f":1506,"\u3041":1507,"\u3042":1508,"\u3043":1509,"\u3044":1510,"\u3045":1511,"\u3046":1512,"\u3047":1513,"\u3048":1514,"\u3049":1515,"\u304a":1516,"\u304b":1517,"\u304d":1518,"\u304f":1519,"\u3051":1520,"\u3053":1521,"\u3055":1522,"\u3057":1523,"\u3059":1524,"\u305b":1525,"\u305d":1526,"\u305f":1527,"\u3061":1528,"\u3063":1529,"\u3064":1530,"\u3066":1531,"\u3068":1532,"\u306a":1533,"\u306b":1534,"\u306c":1535,"\u306d":1536,"\u306e":1537,"\u306f":1538,"\u3072":1539,"\u3075":1540,"\u3078":1541,"\u307b":1542,"\u307e":1543,"\u307f":1544,"\u3080":1545,"\u3081":1546,"\u3082":1547,"\u3083":1548,"\u3084":1549,"\u3085":1550,"\u3086":1551,"\u3087":1552,"\u3088":1553,"\u3089":1554,"\u308a":1555,"\u308b":1556,"\u308c":1557,"\u308d":1558,"\u308f":1559,"\u3090":1560,"\u3091":1561,"\u3092":1562,"\u3093":1563,"\u309d":1564,"\u30a1":1565,"\u30a2":1566,"\u30a3":1567,"\u30a4":1568,"\u30a5":1569,"\u30a6":1570,"\u30a7":1571,"\u30a8":1572,"\u30a9":1573,"\u30aa":1574,"\u30ab":1575,"\u30ad":1576,"\u30af":1577,"\u30b1":1578,"\u30b3":1579,"\u30b5":1580,"\u30b7":1581,"\u30b9":1582,"\u30bb":1583,"\u30bd":1584,"\u30bf":1585,"\u30c1":1586,"\u30c3":1587,"\u30c4":1588,"\u30c6":1589,"\u30c8":1590,"\u30ca":1591,"\u30cb":1592,"\u30cc":1593,"\u30cd":1594,"\u30ce":1595,"\u30cf":1596,"\u30d2":1597,"\u30d5":1598,"\u30d8":1599,"\u30db":1600,"\u30de":1601,"\u30df":1602,"\u30e0":1603,"\u30e1":1604,"\u30e2":1605,"\u30e3":1606,"\u30e4":1607,"\u30e5":1608,"\u30e6":1609,"\u30e7":1610,"\u30e8":1611,"\u30e9":1612,"\u30ea":1613,"\u30eb":1614,"\u30ec":1615,"\u30ed":1616,"\u30ef":1617,"\u30f0":1618,"\u30f1":1619,"\u30f2":1620,"\u30f3":1621,"\u30f5":1622,"\u30f6":1623,"\u30fb":1624,"\u30fc":1625,"\u311a":1626,"\u3127":1627,"\u3128":1628,"\u3131":1629,"\u3134":1630,"\u3137":1631,"\u3139":1632,"\u3141":1633,"\u3142":1634,"\u3145":1635,"\u3147":1636,"\u3148":1637,"\u3161":1638,"\u3163":1639,"\u318d":1640,"\u3231":1641,"\u3392":1642,"\u339e":1643,"\u33a1":1644,"\u3b74":1645,"\u3e74":1646,"\u4723":1647,"\u4c81":1648,"\u4c97":1649,"\u4ca2":1650,"\u4e00":1651,"\u4e01":1652,"\u4e03":1653,"\u4e07":1654,"\u4e08":1655,"\u4e09":1656,"\u4e0a":1657,"\u4e0b":1658,"\u4e0d":1659,"\u4e0e":1660,"\u4e10":1661,"\u4e11":1662,"\u4e13":1663,"\u4e14":1664,"\u4e15":1665,"\u4e16":1666,"\u4e18":1667,"\u4e19":1668,"\u4e1a":1669,"\u4e1b":1670,"\u4e1c":1671,"\u4e1d":1672,"\u4e1e":1673,"\u4e1f":1674,"\u4e21":1675,"\u4e22":1676,"\u4e24":1677,"\u4e25":1678,"\u4e26":1679,"\u4e27":1680,"\u4e2a":1681,"\u4e2b":1682,"\u4e2d":1683,"\u4e30":1684,"\u4e32":1685,"\u4e34":1686,"\u4e36":1687,"\u4e38":1688,"\u4e39":1689,"\u4e3a":1690,"\u4e3b":1691,"\u4e3c":1692,"\u4e3d":1693,"\u4e3e":1694,"\u4e42":1695,"\u4e43":1696,"\u4e45":1697,"\u4e48":1698,"\u4e49":1699,"\u4e4b":1700,"\u4e4c":1701,"\u4e4d":1702,"\u4e4e":1703,"\u4e4f":1704,"\u4e50":1705,"\u4e52":1706,"\u4e53":1707,"\u4e54":1708,"\u4e56":1709,"\u4e57":1710,"\u4e58":1711,"\u4e59":1712,"\u4e5c":1713,"\u4e5d":1714,"\u4e5e":1715,"\u4e5f":1716,"\u4e60":1717,"\u4e61":1718,"\u4e66":1719,"\u4e69":1720,"\u4e6d":1721,"\u4e70":1722,"\u4e71":1723,"\u4e73":1724,"\u4e7e":1725,"\u4e80":1726,"\u4e82":1727,"\u4e86":1728,"\u4e88":1729,"\u4e89":1730,"\u4e8b":1731,"\u4e8c":1732,"\u4e8e":1733,"\u4e8f":1734,"\u4e91":1735,"\u4e92":1736,"\u4e94":1737,"\u4e95":1738,"\u4e98":1739,"\u4e99":1740,"\u4e9a":1741,"\u4e9b":1742,"\u4e9c":1743,"\u4e9e":1744,"\u4e9f":1745,"\u4ea1":1746,"\u4ea2":1747,"\u4ea4":1748,"\u4ea5":1749,"\u4ea6":1750,"\u4ea7":1751,"\u4ea8":1752,"\u4ea9":1753,"\u4eab":1754,"\u4eac":1755,"\u4ead":1756,"\u4eae":1757,"\u4eb0":1758,"\u4eb2":1759,"\u4eb3":1760,"\u4eb5":1761,"\u4eb6":1762,"\u4eba":1763,"\u4ebb":1764,"\u4ebf":1765,"\u4ec0":1766,"\u4ec1":1767,"\u4ec3":1768,"\u4ec4":1769,"\u4ec5":1770,"\u4ec6":1771,"\u4ec7":1772,"\u4eca":1773,"\u4ecb":1774,"\u4ecd":1775,"\u4ece":1776,"\u4ecf":1777,"\u4ed1":1778,"\u4ed3":1779,"\u4ed4":1780,"\u4ed5":1781,"\u4ed6":1782,"\u4ed7":1783,"\u4ed8":1784,"\u4ed9":1785,"\u4edd":1786,"\u4ede":1787,"\u4edf":1788,"\u4ee1":1789,"\u4ee3":1790,"\u4ee4":1791,"\u4ee5":1792,"\u4eea":1793,"\u4eec":1794,"\u4eee":1795,"\u4ef0":1796,"\u4ef2":1797,"\u4ef5":1798,"\u4ef6":1799,"\u4ef7":1800,"\u4efb":1801,"\u4efd":1802,"\u4eff":1803,"\u4f01":1804,"\u4f09":1805,"\u4f0a":1806,"\u4f0b":1807,"\u4f0d":1808,"\u4f0e":1809,"\u4f0f":1810,"\u4f10":1811,"\u4f11":1812,"\u4f15":1813,"\u4f17":1814,"\u4f18":1815,"\u4f19":1816,"\u4f1a":1817,"\u4f1d":1818,"\u4f1e":1819,"\u4f1f":1820,"\u4f20":1821,"\u4f24":1822,"\u4f26":1823,"\u4f2a":1824,"\u4f2b":1825,"\u4f2f":1826,"\u4f30":1827,"\u4f34":1828,"\u4f36":1829,"\u4f37":1830,"\u4f38":1831,"\u4f3a":1832,"\u4f3c":1833,"\u4f3d":1834,"\u4f43":1835,"\u4f46":1836,"\u4f47":1837,"\u4f48":1838,"\u4f49":1839,"\u4f4d":1840,"\u4f4e":1841,"\u4f4f":1842,"\u4f50":1843,"\u4f51":1844,"\u4f53":1845,"\u4f54":1846,"\u4f55":1847,"\u4f57":1848,"\u4f58":1849,"\u4f59":1850,"\u4f5a":1851,"\u4f5b":1852,"\u4f5c":1853,"\u4f5e":1854,"\u4f5f":1855,"\u4f60":1856,"\u4f62":1857,"\u4f63":1858,"\u4f64":1859,"\u4f65":1860,"\u4f69":1861,"\u4f6c":1862,"\u4f6f":1863,"\u4f70":1864,"\u4f73":1865,"\u4f75":1866,"\u4f76":1867,"\u4f7a":1868,"\u4f7b":1869,"\u4f7c":1870,"\u4f7e":1871,"\u4f7f":1872,"\u4f82":1873,"\u4f83":1874,"\u4f84":1875,"\u4f86":1876,"\u4f88":1877,"\u4f8b":1878,"\u4f8d":1879,"\u4f8f":1880,"\u4f91":1881,"\u4f96":1882,"\u4f97":1883,"\u4f98":1884,"\u4f9b":1885,"\u4f9d":1886,"\u4fa0":1887,"\u4fa1":1888,"\u4fa3":1889,"\u4fa5":1890,"\u4fa6":1891,"\u4fa7":1892,"\u4fa8":1893,"\u4faa":1894,"\u4fac":1895,"\u4fad":1896,"\u4fae":1897,"\u4faf":1898,"\u4fb5":1899,"\u4fb6":1900,"\u4fb7":1901,"\u4fbf":1902,"\u4fc1":1903,"\u4fc2":1904,"\u4fc3":1905,"\u4fc4":1906,"\u4fc5":1907,"\u4fca":1908,"\u4fce":1909,"\u4fcf":1910,"\u4fd0":1911,"\u4fd1":1912,"\u4fd7":1913,"\u4fd8":1914,"\u4fda":1915,"\u4fdd":1916,"\u4fde":1917,"\u4fdf":1918,"\u4fe0":1919,"\u4fe1":1920,"\u4fe3":1921,"\u4fe5":1922,"\u4fe6":1923,"\u4fe8":1924,"\u4fe9":1925,"\u4fea":1926,"\u4fec":1927,"\u4fed":1928,"\u4fee":1929,"\u4fef":1930,"\u4ff1":1931,"\u4ff3":1932,"\u4ff5":1933,"\u4ff6":1934,"\u4ff8":1935,"\u4ffa":1936,"\u4ffe":1937,"\u5002":1938,"\u5006":1939,"\u5009":1940,"\u500b":1941,"\u500d":1942,"\u5011":1943,"\u5012":1944,"\u5013":1945,"\u5014":1946,"\u5016":1947,"\u5018":1948,"\u5019":1949,"\u501a":1950,"\u501c":1951,"\u501f":1952,"\u5021":1953,"\u5023":1954,"\u5024":1955,"\u5026":1956,"\u5027":1957,"\u5029":1958,"\u502a":1959,"\u502b":1960,"\u502c":1961,"\u502d":1962,"\u502e":1963,"\u5036":1964,"\u5039":1965,"\u503a":1966,"\u503b":1967,"\u503c":1968,"\u503e":1969,"\u5041":1970,"\u5043":1971,"\u5047":1972,"\u5048":1973,"\u5049":1974,"\u504f":1975,"\u5055":1976,"\u505a":1977,"\u505c":1978,"\u5065":1979,"\u5070":1980,"\u5072":1981,"\u5074":1982,"\u5075":1983,"\u5076":1984,"\u5077":1985,"\u507d":1986,"\u507f":1987,"\u5080":1988,"\u5085":1989,"\u5088":1990,"\u5089":1991,"\u508d":1992,"\u5091":1993,"\u5095":1994,"\u5098":1995,"\u5099":1996,"\u509a":1997,"\u50a2":1998,"\u50a3":1999,"\u50a8":2000,"\u50ac":2001,"\u50ad":2002,"\u50b2":2003,"\u50b3":2004,"\u50b5":2005,"\u50b7":2006,"\u50bb":2007,"\u50be":2008,"\u50c5":2009,"\u50c9":2010,"\u50ca":2011,"\u50cd":2012,"\u50cf":2013,"\u50d1":2014,"\u50d5":2015,"\u50d6":2016,"\u50da":2017,"\u50de":2018,"\u50e5":2019,"\u50e7":2020,"\u50ed":2021,"\u50ee":2022,"\u50f1":2023,"\u50f3":2024,"\u50f5":2025,"\u50f9":2026,"\u50fb":2027,"\u5100":2028,"\u5101":2029,"\u5102":2030,"\u5104":2031,"\u5106":2032,"\u5109":2033,"\u510b":2034,"\u5112":2035,"\u5114":2036,"\u5115":2037,"\u5118":2038,"\u511a":2039,"\u511f":2040,"\u5121":2041,"\u512a":2042,"\u5132":2043,"\u5137":2044,"\u5138":2045,"\u513a":2046,"\u513c":2047,"\u513f":2048,"\u5140":2049,"\u5141":2050,"\u5143":2051,"\u5144":2052,"\u5145":2053,"\u5146":2054,"\u5147":2055,"\u5148":2056,"\u5149":2057,"\u514b":2058,"\u514c":2059,"\u514d":2060,"\u514e":2061,"\u5150":2062,"\u5151":2063,"\u5152":2064,"\u5154":2065,"\u5156":2066,"\u5157":2067,"\u515a":2068,"\u515c":2069,"\u5162":2070,"\u5165":2071,"\u5167":2072,"\u5168":2073,"\u5169":2074,"\u516a":2075,"\u516b":2076,"\u516c":2077,"\u516d":2078,"\u516e":2079,"\u5170":2080,"\u5171":2081,"\u5173":2082,"\u5174":2083,"\u5175":2084,"\u5176":2085,"\u5177":2086,"\u5178":2087,"\u5179":2088,"\u517b":2089,"\u517c":2090,"\u517d":2091,"\u5180":2092,"\u5185":2093,"\u5186":2094,"\u5187":2095,"\u5188":2096,"\u5189":2097,"\u518a":2098,"\u518c":2099,"\u518d":2100,"\u518f":2101,"\u5191":2102,"\u5192":2103,"\u5195":2104,"\u5197":2105,"\u5199":2106,"\u519b":2107,"\u519c":2108,"\u51a0":2109,"\u51a2":2110,"\u51a4":2111,"\u51a5":2112,"\u51a8":2113,"\u51aa":2114,"\u51ac":2115,"\u51af":2116,"\u51b0":2117,"\u51b2":2118,"\u51b3":2119,"\u51b4":2120,"\u51b5":2121,"\u51b6":2122,"\u51b7":2123,"\u51bb":2124,"\u51bc":2125,"\u51bd":2126,"\u51c0":2127,"\u51c4":2128,"\u51c6":2129,"\u51c8":2130,"\u51c9":2131,"\u51ca":2132,"\u51cb":2133,"\u51cc":2134,"\u51cd":2135,"\u51cf":2136,"\u51d1":2137,"\u51d6":2138,"\u51db":2139,"\u51dc":2140,"\u51dd":2141,"\u51e0":2142,"\u51e1":2143,"\u51e4":2144,"\u51e6":2145,"\u51e7":2146,"\u51ea":2147,"\u51eb":2148,"\u51ed":2149,"\u51ef":2150,"\u51f0":2151,"\u51f1":2152,"\u51f3":2153,"\u51f6":2154,"\u51f8":2155,"\u51f9":2156,"\u51fa":2157,"\u51fb":2158,"\u51fc":2159,"\u51fd":2160,"\u51ff":2161,"\u5200":2162,"\u5201":2163,"\u5203":2164,"\u5206":2165,"\u5207":2166,"\u5208":2167,"\u520a":2168,"\u520d":2169,"\u520e":2170,"\u5211":2171,"\u5212":2172,"\u5217":2173,"\u5218":2174,"\u5219":2175,"\u521a":2176,"\u521b":2177,"\u521d":2178,"\u5220":2179,"\u5224":2180,"\u5225":2181,"\u5228":2182,"\u5229":2183,"\u522a":2184,"\u522b":2185,"\u522e":2186,"\u5230":2187,"\u5233":2188,"\u5236":2189,"\u5237":2190,"\u5238":2191,"\u5239":2192,"\u523a":2193,"\u523b":2194,"\u523d":2195,"\u5241":2196,"\u5242":2197,"\u5243":2198,"\u5247":2199,"\u524a":2200,"\u524b":2201,"\u524c":2202,"\u524d":2203,"\u524e":2204,"\u5251":2205,"\u5254":2206,"\u5256":2207,"\u525b":2208,"\u525d":2209,"\u5261":2210,"\u5263":2211,"\u5264":2212,"\u5265":2213,"\u5267":2214,"\u5269":2215,"\u526a":2216,"\u526f":2217,"\u5270":2218,"\u5271":2219,"\u5272":2220,"\u5275":2221,"\u5277":2222,"\u527d":2223,"\u527f":2224,"\u5283":2225,"\u5287":2226,"\u5288":2227,"\u5289":2228,"\u528a":2229,"\u528d":2230,"\u5291":2231,"\u5294":2232,"\u529b":2233,"\u529d":2234,"\u529e":2235,"\u529f":2236,"\u52a0":2237,"\u52a1":2238,"\u52a2":2239,"\u52a3":2240,"\u52a8":2241,"\u52a9":2242,"\u52aa":2243,"\u52ab":2244,"\u52ad":2245,"\u52b1":2246,"\u52b2":2247,"\u52b3":2248,"\u52b4":2249,"\u52b5":2250,"\u52b9":2251,"\u52bb":2252,"\u52be":2253,"\u52bf":2254,"\u52c1":2255,"\u52c3":2256,"\u52c5":2257,"\u52c7":2258,"\u52c9":2259,"\u52cb":2260,"\u52d0":2261,"\u52d2":2262,"\u52d4":2263,"\u52d5":2264,"\u52d6":2265,"\u52d7":2266,"\u52d8":2267,"\u52d9":2268,"\u52db":2269,"\u52dd":2270,"\u52de":2271,"\u52df":2272,"\u52e2":2273,"\u52e3":2274,"\u52e4":2275,"\u52e7":2276,"\u52f0":2277,"\u52f1":2278,"\u52f2":2279,"\u52f3":2280,"\u52f5":2281,"\u52f8":2282,"\u52fa":2283,"\u52fb":2284,"\u52fe":2285,"\u52ff":2286,"\u5300":2287,"\u5301":2288,"\u5302":2289,"\u5305":2290,"\u5306":2291,"\u5308":2292,"\u530d":2293,"\u530f":2294,"\u5310":2295,"\u5315":2296,"\u5316":2297,"\u5317":2298,"\u5319":2299,"\u531d":2300,"\u5320":2301,"\u5321":2302,"\u5323":2303,"\u532a":2304,"\u532e":2305,"\u532f":2306,"\u5331":2307,"\u5339":2308,"\u533a":2309,"\u533b":2310,"\u533e":2311,"\u533f":2312,"\u5340":2313,"\u5341":2314,"\u5343":2315,"\u5345":2316,"\u5347":2317,"\u5348":2318,"\u5349":2319,"\u534a":2320,"\u534d":2321,"\u534e":2322,"\u534f":2323,"\u5350":2324,"\u5351":2325,"\u5352":2326,"\u5353":2327,"\u5354":2328,"\u5355":2329,"\u5356":2330,"\u5357":2331,"\u5358":2332,"\u535a":2333,"\u535c":2334,"\u535e":2335,"\u535f":2336,"\u5360":2337,"\u5361":2338,"\u5362":2339,"\u5364":2340,"\u5366":2341,"\u5367":2342,"\u536b":2343,"\u536c":2344,"\u536f":2345,"\u5370":2346,"\u5371":2347,"\u5373":2348,"\u5374":2349,"\u5375":2350,"\u5377":2351,"\u5378":2352,"\u5379":2353,"\u537b":2354,"\u537d":2355,"\u537f":2356,"\u5382":2357,"\u5384":2358,"\u5385":2359,"\u5386":2360,"\u5389":2361,"\u538b":2362,"\u538c":2363,"\u5393":2364,"\u5394":2365,"\u5395":2366,"\u5398":2367,"\u539a":2368,"\u539d":2369,"\u539f":2370,"\u53a2":2371,"\u53a5":2372,"\u53a6":2373,"\u53a8":2374,"\u53a9":2375,"\u53ad":2376,"\u53ae":2377,"\u53b2":2378,"\u53b3":2379,"\u53bb":2380,"\u53bf":2381,"\u53c1":2382,"\u53c2":2383,"\u53c3":2384,"\u53c4":2385,"\u53c8":2386,"\u53c9":2387,"\u53ca":2388,"\u53cb":2389,"\u53cc":2390,"\u53cd":2391,"\u53ce":2392,"\u53d1":2393,"\u53d4":2394,"\u53d6":2395,"\u53d7":2396,"\u53d8":2397,"\u53d9":2398,"\u53db":2399,"\u53df":2400,"\u53e0":2401,"\u53e1":2402,"\u53e2":2403,"\u53e3":2404,"\u53e4":2405,"\u53e5":2406,"\u53e6":2407,"\u53e8":2408,"\u53e9":2409,"\u53ea":2410,"\u53eb":2411,"\u53ec":2412,"\u53ed":2413,"\u53ee":2414,"\u53ef":2415,"\u53f0":2416,"\u53f1":2417,"\u53f2":2418,"\u53f3":2419,"\u53f6":2420,"\u53f7":2421,"\u53f8":2422,"\u53f9":2423,"\u53fb":2424,"\u53fc":2425,"\u5401":2426,"\u5403":2427,"\u5404":2428,"\u5408":2429,"\u5409":2430,"\u540a":2431,"\u540b":2432,"\u540c":2433,"\u540d":2434,"\u540e":2435,"\u540f":2436,"\u5410":2437,"\u5411":2438,"\u5412":2439,"\u5413":2440,"\u5415":2441,"\u5417":2442,"\u541b":2443,"\u541d":2444,"\u541e":2445,"\u541f":2446,"\u5420":2447,"\u5421":2448,"\u5426":2449,"\u5427":2450,"\u5428":2451,"\u5429":2452,"\u542b":2453,"\u542c":2454,"\u542e":2455,"\u542f":2456,"\u5431":2457,"\u5432":2458,"\u5433":2459,"\u5434":2460,"\u5435":2461,"\u5436":2462,"\u5438":2463,"\u5439":2464,"\u543b":2465,"\u543c":2466,"\u543d":2467,"\u543e":2468,"\u5440":2469,"\u5442":2470,"\u5443":2471,"\u5446":2472,"\u5448":2473,"\u5449":2474,"\u544a":2475,"\u544b":2476,"\u544e":2477,"\u5450":2478,"\u5451":2479,"\u5455":2480,"\u5457":2481,"\u5458":2482,"\u545b":2483,"\u545c":2484,"\u545f":2485,"\u5462":2486,"\u5464":2487,"\u5466":2488,"\u5468":2489,"\u546a":2490,"\u5471":2491,"\u5473":2492,"\u5475":2493,"\u5477":2494,"\u547b":2495,"\u547c":2496,"\u547d":2497,"\u5480":2498,"\u5481":2499,"\u5484":2500,"\u5486":2501,"\u548b":2502,"\u548c":2503,"\u548e":2504,"\u548f":2505,"\u5490":2506,"\u5492":2507,"\u5494":2508,"\u5495":2509,"\u5496":2510,"\u5497":2511,"\u5499":2512,"\u549a":2513,"\u54a4":2514,"\u54a5":2515,"\u54a7":2516,"\u54a8":2517,"\u54a9":2518,"\u54aa":2519,"\u54ab":2520,"\u54ac":2521,"\u54ad":2522,"\u54af":2523,"\u54b1":2524,"\u54b2":2525,"\u54b3":2526,"\u54b8":2527,"\u54bd":2528,"\u54bf":2529,"\u54c0":2530,"\u54c1":2531,"\u54c2":2532,"\u54c4":2533,"\u54c6":2534,"\u54c7":2535,"\u54c8":2536,"\u54c9":2537,"\u54cb":2538,"\u54cc":2539,"\u54cd":2540,"\u54ce":2541,"\u54cf":2542,"\u54d1":2543,"\u54d2":2544,"\u54d4":2545,"\u54d7":2546,"\u54d9":2547,"\u54da":2548,"\u54df":2549,"\u54e1":2550,"\u54e5":2551,"\u54e6":2552,"\u54e8":2553,"\u54e9":2554,"\u54ea":2555,"\u54ed":2556,"\u54ee":2557,"\u54f2":2558,"\u54fa":2559,"\u54fc":2560,"\u54fd":2561,"\u5501":2562,"\u5504":2563,"\u5506":2564,"\u5507":2565,"\u550e":2566,"\u5510":2567,"\u5511":2568,"\u5514":2569,"\u5516":2570,"\u551b":2571,"\u5522":2572,"\u5524":2573,"\u5527":2574,"\u552c":2575,"\u552d":2576,"\u552e":2577,"\u552f":2578,"\u5531":2579,"\u5535":2580,"\u5537":2581,"\u5538":2582,"\u553e":2583,"\u5543":2584,"\u5544":2585,"\u5546":2586,"\u5549":2587,"\u554a":2588,"\u554f":2589,"\u5553":2590,"\u5556":2591,"\u555c":2592,"\u555e":2593,"\u555f":2594,"\u5561":2595,"\u5564":2596,"\u5565":2597,"\u5566":2598,"\u556a":2599,"\u556c":2600,"\u556e":2601,"\u5570":2602,"\u5572":2603,"\u5576":2604,"\u5578":2605,"\u557c":2606,"\u557e":2607,"\u5580":2608,"\u5582":2609,"\u5583":2610,"\u5584":2611,"\u5586":2612,"\u5587":2613,"\u5589":2614,"\u558a":2615,"\u558b":2616,"\u5594":2617,"\u5598":2618,"\u5599":2619,"\u559a":2620,"\u559c":2621,"\u559d":2622,"\u55a7":2623,"\u55a9":2624,"\u55aa":2625,"\u55ab":2626,"\u55ac":2627,"\u55ae":2628,"\u55b0":2629,"\u55b1":2630,"\u55b2":2631,"\u55b5":2632,"\u55b6":2633,"\u55b7":2634,"\u55b9":2635,"\u55ba":2636,"\u55bb":2637,"\u55c5":2638,"\u55c6":2639,"\u55c7":2640,"\u55ce":2641,"\u55d3":2642,"\u55d4":2643,"\u55da":2644,"\u55dc":2645,"\u55dd":2646,"\u55df":2647,"\u55e1":2648,"\u55e3":2649,"\u55e4":2650,"\u55e8":2651,"\u55e9":2652,"\u55ea":2653,"\u55ef":2654,"\u55f2":2655,"\u55f6":2656,"\u55fd":2657,"\u5605":2658,"\u5606":2659,"\u5608":2660,"\u5609":2661,"\u560c":2662,"\u560e":2663,"\u560f":2664,"\u5614":2665,"\u5617":2666,"\u5618":2667,"\u561b":2668,"\u561c":2669,"\u561f":2670,"\u5622":2671,"\u5627":2672,"\u5629":2673,"\u562f":2674,"\u5631":2675,"\u5632":2676,"\u5634":2677,"\u5636":2678,"\u5639":2679,"\u563b":2680,"\u563f":2681,"\u5641":2682,"\u5642":2683,"\u564c":2684,"\u564f":2685,"\u5653":2686,"\u5657":2687,"\u565b":2688,"\u565c":2689,"\u5660":2690,"\u5662":2691,"\u5664":2692,"\u5668":2693,"\u5669":2694,"\u566a":2695,"\u566b":2696,"\u566c":2697,"\u5671":2698,"\u5672":2699,"\u5674":2700,"\u5676":2701,"\u5678":2702,"\u5679":2703,"\u567a":2704,"\u567b":2705,"\u5686":2706,"\u5687":2707,"\u5688":2708,"\u568e":2709,"\u568f":2710,"\u5690":2711,"\u5695":2712,"\u5699":2713,"\u569f":2714,"\u56a2":2715,"\u56a3":2716,"\u56a5":2717,"\u56a8":2718,"\u56ae":2719,"\u56b4":2720,"\u56b7":2721,"\u56bc":2722,"\u56c1":2723,"\u56c2":2724,"\u56c3":2725,"\u56c9":2726,"\u56ca":2727,"\u56cd":2728,"\u56d1":2729,"\u56d3":2730,"\u56d7":2731,"\u56da":2732,"\u56db":2733,"\u56dd":2734,"\u56de":2735,"\u56e0":2736,"\u56e1":2737,"\u56e2":2738,"\u56e3":2739,"\u56e4":2740,"\u56e7":2741,"\u56ea":2742,"\u56ed":2743,"\u56ee":2744,"\u56f0":2745,"\u56f1":2746,"\u56f2":2747,"\u56f3":2748,"\u56f4":2749,"\u56fa":2750,"\u56fd":2751,"\u56fe":2752,"\u56ff":2753,"\u5700":2754,"\u5703":2755,"\u5706":2756,"\u5708":2757,"\u5709":2758,"\u570b":2759,"\u570d":2760,"\u570f":2761,"\u5712":2762,"\u5713":2763,"\u5716":2764,"\u5718":2765,"\u571c":2766,"\u571f":2767,"\u5723":2768,"\u5727":2769,"\u5728":2770,"\u5729":2771,"\u572a":2772,"\u572d":2773,"\u572e":2774,"\u572f":2775,"\u5730":2776,"\u5733":2777,"\u5739":2778,"\u573a":2779,"\u573b":2780,"\u573e":2781,"\u5740":2782,"\u5742":2783,"\u5747":2784,"\u574a":2785,"\u574c":2786,"\u574d":2787,"\u574e":2788,"\u574f":2789,"\u5750":2790,"\u5751":2791,"\u5757":2792,"\u575a":2793,"\u575b":2794,"\u575c":2795,"\u575d":2796,"\u575e":2797,"\u575f":2798,"\u5760":2799,"\u5761":2800,"\u5764":2801,"\u5766":2802,"\u5768":2803,"\u5769":2804,"\u576a":2805,"\u576c":2806,"\u576d":2807,"\u576f":2808,"\u5773":2809,"\u5775":2810,"\u5777":2811,"\u577b":2812,"\u5782":2813,"\u5783":2814,"\u5784":2815,"\u5785":2816,"\u5788":2817,"\u578b":2818,"\u578c":2819,"\u5792":2820,"\u5793":2821,"\u5795":2822,"\u579a":2823,"\u579b":2824,"\u579f":2825,"\u57a0":2826,"\u57a1":2827,"\u57a2":2828,"\u57a3":2829,"\u57a6":2830,"\u57a9":2831,"\u57ab":2832,"\u57ad":2833,"\u57ae":2834,"\u57b4":2835,"\u57b5":2836,"\u57b8":2837,"\u57c2":2838,"\u57c3":2839,"\u57c8":2840,"\u57cb":2841,"\u57ce":2842,"\u57cf":2843,"\u57d2":2844,"\u57d4":2845,"\u57d5":2846,"\u57d7":2847,"\u57d9":2848,"\u57dc":2849,"\u57dd":2850,"\u57df":2851,"\u57e0":2852,"\u57e1":2853,"\u57e4":2854,"\u57ed":2855,"\u57f4":2856,"\u57f5":2857,"\u57f7":2858,"\u57f8":2859,"\u57f9":2860,"\u57fa":2861,"\u57fc":2862,"\u5800":2863,"\u5802":2864,"\u5803":2865,"\u5805":2866,"\u5806":2867,"\u5807":2868,"\u5809":2869,"\u580a":2870,"\u5811":2871,"\u5815":2872,"\u581d":2873,"\u581e":2874,"\u5821":2875,"\u5824":2876,"\u582a":2877,"\u582f":2878,"\u5830":2879,"\u5831":2880,"\u5834":2881,"\u5835":2882,"\u583a":2883,"\u5840":2884,"\u5841":2885,"\u584a":2886,"\u584b":2887,"\u584c":2888,"\u5851":2889,"\u5854":2890,"\u5857":2891,"\u5858":2892,"\u5859":2893,"\u585a":2894,"\u585e":2895,"\u5861":2896,"\u5862":2897,"\u5869":2898,"\u586b":2899,"\u586c":2900,"\u586d":2901,"\u5871":2902,"\u5875":2903,"\u5879":2904,"\u587d":2905,"\u587e":2906,"\u5880":2907,"\u5883":2908,"\u5885":2909,"\u5889":2910,"\u588a":2911,"\u5893":2912,"\u5895":2913,"\u5897":2914,"\u5898":2915,"\u5899":2916,"\u589c":2917,"\u589e":2918,"\u589f":2919,"\u58a8":2920,"\u58a9":2921,"\u58ac":2922,"\u58ae":2923,"\u58b3":2924,"\u58ba":2925,"\u58bb":2926,"\u58be":2927,"\u58c1":2928,"\u58c5":2929,"\u58c6":2930,"\u58c7":2931,"\u58ca":2932,"\u58cc":2933,"\u58d1":2934,"\u58d3":2935,"\u58d5":2936,"\u58d8":2937,"\u58d9":2938,"\u58de":2939,"\u58df":2940,"\u58e0":2941,"\u58e2":2942,"\u58e4":2943,"\u58e9":2944,"\u58eb":2945,"\u58ec":2946,"\u58ee":2947,"\u58ef":2948,"\u58f0":2949,"\u58f1":2950,"\u58f2":2951,"\u58f3":2952,"\u58f6":2953,"\u58f7":2954,"\u58f9":2955,"\u58fa":2956,"\u58fd":2957,"\u5904":2958,"\u5907":2959,"\u5909":2960,"\u590d":2961,"\u590f":2962,"\u5914":2963,"\u5915":2964,"\u5916":2965,"\u5919":2966,"\u591a":2967,"\u591c":2968,"\u591f":2969,"\u5920":2970,"\u5922":2971,"\u5924":2972,"\u5925":2973,"\u5927":2974,"\u5929":2975,"\u592a":2976,"\u592b":2977,"\u592d":2978,"\u592e":2979,"\u592f":2980,"\u5931":2981,"\u5934":2982,"\u5937":2983,"\u5938":2984,"\u5939":2985,"\u593a":2986,"\u593c":2987,"\u593e":2988,"\u5942":2989,"\u5944":2990,"\u5947":2991,"\u5948":2992,"\u5949":2993,"\u594b":2994,"\u594e":2995,"\u594f":2996,"\u5950":2997,"\u5951":2998,"\u5954":2999,"\u5955":3000,"\u5956":3001,"\u5957":3002,"\u5958":3003,"\u595a":3004,"\u5960":3005,"\u5962":3006,"\u5965":3007,"\u5967":3008,"\u5968":3009,"\u596a":3010,"\u596c":3011,"\u596d":3012,"\u596e":3013,"\u5973":3014,"\u5974":3015,"\u5976":3016,"\u5978":3017,"\u5979":3018,"\u597d":3019,"\u5982":3020,"\u5983":3021,"\u5984":3022,"\u5986":3023,"\u5987":3024,"\u5988":3025,"\u598a":3026,"\u598d":3027,"\u5992":3028,"\u5993":3029,"\u5996":3030,"\u5999":3031,"\u599d":3032,"\u599e":3033,"\u59a3":3034,"\u59a4":3035,"\u59a5":3036,"\u59a8":3037,"\u59ab":3038,"\u59ac":3039,"\u59ae":3040,"\u59b2":3041,"\u59b3":3042,"\u59b9":3043,"\u59bb":3044,"\u59be":3045,"\u59c6":3046,"\u59c9":3047,"\u59ca":3048,"\u59cb":3049,"\u59cd":3050,"\u59d0":3051,"\u59d1":3052,"\u59d2":3053,"\u59d3":3054,"\u59d4":3055,"\u59d7":3056,"\u59da":3057,"\u59dc":3058,"\u59dd":3059,"\u59e3":3060,"\u59e5":3061,"\u59e6":3062,"\u59e8":3063,"\u59ea":3064,"\u59eb":3065,"\u59ec":3066,"\u59f5":3067,"\u59f6":3068,"\u59fb":3069,"\u59ff":3070,"\u5a01":3071,"\u5a03":3072,"\u5a04":3073,"\u5a05":3074,"\u5a06":3075,"\u5a07":3076,"\u5a09":3077,"\u5a11":3078,"\u5a13":3079,"\u5a18":3080,"\u5a1b":3081,"\u5a1c":3082,"\u5a1f":3083,"\u5a20":3084,"\u5a23":3085,"\u5a25":3086,"\u5a29":3087,"\u5a2f":3088,"\u5a31":3089,"\u5a32":3090,"\u5a34":3091,"\u5a36":3092,"\u5a3c":3093,"\u5a41":3094,"\u5a46":3095,"\u5a49":3096,"\u5a55":3097,"\u5a5a":3098,"\u5a62":3099,"\u5a66":3100,"\u5a67":3101,"\u5a6a":3102,"\u5a6c":3103,"\u5a6d":3104,"\u5a74":3105,"\u5a75":3106,"\u5a76":3107,"\u5a77":3108,"\u5a7a":3109,"\u5a7f":3110,"\u5a92":3111,"\u5a9a":3112,"\u5a9b":3113,"\u5a9e":3114,"\u5aa7":3115,"\u5aaf":3116,"\u5ab2":3117,"\u5ab3":3118,"\u5abd":3119,"\u5abe":3120,"\u5ac1":3121,"\u5ac2":3122,"\u5ac4":3123,"\u5ac9":3124,"\u5acc":3125,"\u5ad4":3126,"\u5ad6":3127,"\u5ad7":3128,"\u5ada":3129,"\u5ae1":3130,"\u5ae3":3131,"\u5ae6":3132,"\u5ae9":3133,"\u5afb":3134,"\u5b05":3135,"\u5b08":3136,"\u5b09":3137,"\u5b0b":3138,"\u5b0c":3139,"\u5b16":3140,"\u5b17":3141,"\u5b1b":3142,"\u5b22":3143,"\u5b24":3144,"\u5b2a":3145,"\u5b2c":3146,"\u5b30":3147,"\u5b32":3148,"\u5b34":3149,"\u5b37":3150,"\u5b38":3151,"\u5b3f":3152,"\u5b40":3153,"\u5b43":3154,"\u5b50":3155,"\u5b51":3156,"\u5b54":3157,"\u5b55":3158,"\u5b56":3159,"\u5b57":3160,"\u5b58":3161,"\u5b59":3162,"\u5b5a":3163,"\u5b5b":3164,"\u5b5c":3165,"\u5b5d":3166,"\u5b5f":3167,"\u5b62":3168,"\u5b63":3169,"\u5b64":3170,"\u5b66":3171,"\u5b69":3172,"\u5b6a":3173,"\u5b6b":3174,"\u5b70":3175,"\u5b71":3176,"\u5b73":3177,"\u5b75":3178,"\u5b78":3179,"\u5b7a":3180,"\u5b7d":3181,"\u5b7f":3182,"\u5b80":3183,"\u5b81":3184,"\u5b83":3185,"\u5b85":3186,"\u5b87":3187,"\u5b88":3188,"\u5b89":3189,"\u5b8b":3190,"\u5b8c":3191,"\u5b8d":3192,"\u5b8f":3193,"\u5b93":3194,"\u5b95":3195,"\u5b97":3196,"\u5b98":3197,"\u5b99":3198,"\u5b9a":3199,"\u5b9b":3200,"\u5b9c":3201,"\u5b9d":3202,"\u5b9e":3203,"\u5b9f":3204,"\u5ba0":3205,"\u5ba1":3206,"\u5ba2":3207,"\u5ba3":3208,"\u5ba4":3209,"\u5ba5":3210,"\u5ba6":3211,"\u5baa":3212,"\u5bab":3213,"\u5bae":3214,"\u5bb0":3215,"\u5bb3":3216,"\u5bb4":3217,"\u5bb5":3218,"\u5bb6":3219,"\u5bb8":3220,"\u5bb9":3221,"\u5bbd":3222,"\u5bbe":3223,"\u5bbf":3224,"\u5bc2":3225,"\u5bc4":3226,"\u5bc5":3227,"\u5bc6":3228,"\u5bc7":3229,"\u5bcc":3230,"\u5bd0":3231,"\u5bd2":3232,"\u5bd3":3233,"\u5bd4":3234,"\u5bd8":3235,"\u5bdb":3236,"\u5bdd":3237,"\u5bde":3238,"\u5bdf":3239,"\u5be1":3240,"\u5be2":3241,"\u5be5":3242,"\u5be6":3243,"\u5be7":3244,"\u5be8":3245,"\u5be9":3246,"\u5beb":3247,"\u5bec":3248,"\u5bee":3249,"\u5bef":3250,"\u5bf0":3251,"\u5bf3":3252,"\u5bf5":3253,"\u5bf6":3254,"\u5bf8":3255,"\u5bf9":3256,"\u5bfa":3257,"\u5bfb":3258,"\u5bfc":3259,"\u5bfe":3260,"\u5bff":3261,"\u5c01":3262,"\u5c02":3263,"\u5c04":3264,"\u5c06":3265,"\u5c07":3266,"\u5c08":3267,"\u5c09":3268,"\u5c0a":3269,"\u5c0b":3270,"\u5c0d":3271,"\u5c0e":3272,"\u5c0f":3273,"\u5c11":3274,"\u5c14":3275,"\u5c15":3276,"\u5c16":3277,"\u5c18":3278,"\u5c19":3279,"\u5c1a":3280,"\u5c1d":3281,"\u5c24":3282,"\u5c27":3283,"\u5c2a":3284,"\u5c2c":3285,"\u5c2d":3286,"\u5c31":3287,"\u5c34":3288,"\u5c37":3289,"\u5c38":3290,"\u5c39":3291,"\u5c3a":3292,"\u5c3b":3293,"\u5c3c":3294,"\u5c3d":3295,"\u5c3e":3296,"\u5c3f":3297,"\u5c40":3298,"\u5c41":3299,"\u5c42":3300,"\u5c45":3301,"\u5c46":3302,"\u5c48":3303,"\u5c4a":3304,"\u5c4b":3305,"\u5c4c":3306,"\u5c4d":3307,"\u5c4e":3308,"\u5c4f":3309,"\u5c50":3310,"\u5c51":3311,"\u5c53":3312,"\u5c55":3313,"\u5c5e":3314,"\u5c60":3315,"\u5c61":3316,"\u5c62":3317,"\u5c64":3318,"\u5c65":3319,"\u5c6c":3320,"\u5c6f":3321,"\u5c71":3322,"\u5c79":3323,"\u5c7f":3324,"\u5c80":3325,"\u5c81":3326,"\u5c82":3327,"\u5c8c":3328,"\u5c90":3329,"\u5c91":3330,"\u5c94":3331,"\u5c96":3332,"\u5c97":3333,"\u5c98":3334,"\u5c99":3335,"\u5c9a":3336,"\u5c9b":3337,"\u5ca1":3338,"\u5ca2":3339,"\u5ca9":3340,"\u5cab":3341,"\u5cac":3342,"\u5cad":3343,"\u5cb1":3344,"\u5cb3":3345,"\u5cb7":3346,"\u5cb8":3347,"\u5cc1":3348,"\u5cc4":3349,"\u5cc7":3350,"\u5ccb":3351,"\u5cd2":3352,"\u5cd9":3353,"\u5ce0":3354,"\u5ce1":3355,"\u5ce4":3356,"\u5ce5":3357,"\u5ce6":3358,"\u5ce8":3359,"\u5ce9":3360,"\u5cea":3361,"\u5ced":3362,"\u5cef":3363,"\u5cf0":3364,"\u5cf4":3365,"\u5cf6":3366,"\u5cfb":3367,"\u5cfd":3368,"\u5d01":3369,"\u5d02":3370,"\u5d06":3371,"\u5d07":3372,"\u5d0b":3373,"\u5d0d":3374,"\u5d0e":3375,"\u5d10":3376,"\u5d11":3377,"\u5d14":3378,"\u5d16":3379,"\u5d17":3380,"\u5d19":3381,"\u5d1a":3382,"\u5d1b":3383,"\u5d1e":3384,"\u5d22":3385,"\u5d24":3386,"\u5d27":3387,"\u5d29":3388,"\u5d2d":3389,"\u5d2e":3390,"\u5d31":3391,"\u5d34":3392,"\u5d3d":3393,"\u5d47":3394,"\u5d4a":3395,"\u5d4b":3396,"\u5d4c":3397,"\u5d50":3398,"\u5d58":3399,"\u5d59":3400,"\u5d5c":3401,"\u5d69":3402,"\u5d6c":3403,"\u5d6f":3404,"\u5d74":3405,"\u5d82":3406,"\u5d84":3407,"\u5d87":3408,"\u5d8b":3409,"\u5d8c":3410,"\u5d97":3411,"\u5d99":3412,"\u5d9d":3413,"\u5da0":3414,"\u5da7":3415,"\u5db4":3416,"\u5db7":3417,"\u5db8":3418,"\u5dba":3419,"\u5dbc":3420,"\u5dbd":3421,"\u5dc2":3422,"\u5dc5":3423,"\u5dcc":3424,"\u5dcd":3425,"\u5dd2":3426,"\u5dd4":3427,"\u5dd6":3428,"\u5ddd":3429,"\u5dde":3430,"\u5de1":3431,"\u5de2":3432,"\u5de3":3433,"\u5de5":3434,"\u5de6":3435,"\u5de7":3436,"\u5de8":3437,"\u5de9":3438,"\u5deb":3439,"\u5dee":3440,"\u5df1":3441,"\u5df2":3442,"\u5df3":3443,"\u5df4":3444,"\u5df7":3445,"\u5dfb":3446,"\u5dfd":3447,"\u5dfe":3448,"\u5dff":3449,"\u5e01":3450,"\u5e02":3451,"\u5e03":3452,"\u5e05":3453,"\u5e06":3454,"\u5e08":3455,"\u5e0c":3456,"\u5e10":3457,"\u5e11":3458,"\u5e15":3459,"\u5e16":3460,"\u5e18":3461,"\u5e19":3462,"\u5e1a":3463,"\u5e1b":3464,"\u5e1c":3465,"\u5e1d":3466,"\u5e25":3467,"\u5e26":3468,"\u5e27":3469,"\u5e2b":3470,"\u5e2d":3471,"\u5e2e":3472,"\u5e2f":3473,"\u5e30":3474,"\u5e33":3475,"\u5e36":3476,"\u5e37":3477,"\u5e38":3478,"\u5e3c":3479,"\u5e3d":3480,"\u5e40":3481,"\u5e42":3482,"\u5e44":3483,"\u5e45":3484,"\u5e47":3485,"\u5e4c":3486,"\u5e54":3487,"\u5e55":3488,"\u5e57":3489,"\u5e5f":3490,"\u5e61":3491,"\u5e62":3492,"\u5e63":3493,"\u5e6a":3494,"\u5e6b":3495,"\u5e72":3496,"\u5e73":3497,"\u5e74":3498,"\u5e76":3499,"\u5e77":3500,"\u5e78":3501,"\u5e79":3502,"\u5e7a":3503,"\u5e7b":3504,"\u5e7c":3505,"\u5e7d":3506,"\u5e7e":3507,"\u5e7f":3508,"\u5e81":3509,"\u5e83":3510,"\u5e84":3511,"\u5e86":3512,"\u5e87":3513,"\u5e8a":3514,"\u5e8f":3515,"\u5e90":3516,"\u5e91":3517,"\u5e93":3518,"\u5e94":3519,"\u5e95":3520,"\u5e96":3521,"\u5e97":3522,"\u5e99":3523,"\u5e9a":3524,"\u5e9c":3525,"\u5e9e":3526,"\u5e9f":3527,"\u5ea0":3528,"\u5ea5":3529,"\u5ea6":3530,"\u5ea7":3531,"\u5eab":3532,"\u5ead":3533,"\u5eb5":3534,"\u5eb6":3535,"\u5eb7":3536,"\u5eb8":3537,"\u5eb9":3538,"\u5ebe":3539,"\u5ec1":3540,"\u5ec2":3541,"\u5ec3":3542,"\u5ec4":3543,"\u5ec6":3544,"\u5ec8":3545,"\u5ec9":3546,"\u5eca":3547,"\u5ecd":3548,"\u5ed3":3549,"\u5ed6":3550,"\u5ed9":3551,"\u5eda":3552,"\u5edd":3553,"\u5ede":3554,"\u5edf":3555,"\u5ee0":3556,"\u5ee1":3557,"\u5ee2":3558,"\u5ee3":3559,"\u5ee8":3560,"\u5ee9":3561,"\u5eea":3562,"\u5eec":3563,"\u5ef3":3564,"\u5ef6":3565,"\u5ef7":3566,"\u5ef8":3567,"\u5efa":3568,"\u5efb":3569,"\u5efc":3570,"\u5eff":3571,"\u5f00":3572,"\u5f01":3573,"\u5f02":3574,"\u5f03":3575,"\u5f04":3576,"\u5f07":3577,"\u5f08":3578,"\u5f09":3579,"\u5f0a":3580,"\u5f0b":3581,"\u5f0c":3582,"\u5f0f":3583,"\u5f10":3584,"\u5f11":3585,"\u5f12":3586,"\u5f13":3587,"\u5f14":3588,"\u5f15":3589,"\u5f16":3590,"\u5f17":3591,"\u5f18":3592,"\u5f1b":3593,"\u5f1f":3594,"\u5f20":3595,"\u5f22":3596,"\u5f25":3597,"\u5f26":3598,"\u5f27":3599,"\u5f29":3600,"\u5f2d":3601,"\u5f2f":3602,"\u5f31":3603,"\u5f35":3604,"\u5f37":3605,"\u5f39":3606,"\u5f3a":3607,"\u5f3c":3608,"\u5f3e":3609,"\u5f40":3610,"\u5f45":3611,"\u5f48":3612,"\u5f4a":3613,"\u5f4c":3614,"\u5f4e":3615,"\u5f52":3616,"\u5f53":3617,"\u5f55":3618,"\u5f57":3619,"\u5f58":3620,"\u5f59":3621,"\u5f5d":3622,"\u5f61":3623,"\u5f62":3624,"\u5f64":3625,"\u5f65":3626,"\u5f66":3627,"\u5f67":3628,"\u5f69":3629,"\u5f6a":3630,"\u5f6b":3631,"\u5f6c":3632,"\u5f6d":3633,"\u5f70":3634,"\u5f71":3635,"\u5f73":3636,"\u5f77":3637,"\u5f79":3638,"\u5f7b":3639,"\u5f7c":3640,"\u5f7f":3641,"\u5f80":3642,"\u5f81":3643,"\u5f82":3644,"\u5f84":3645,"\u5f85":3646,"\u5f87":3647,"\u5f88":3648,"\u5f8a":3649,"\u5f8b":3650,"\u5f8c":3651,"\u5f90":3652,"\u5f91":3653,"\u5f92":3654,"\u5f93":3655,"\u5f95":3656,"\u5f97":3657,"\u5f98":3658,"\u5f99":3659,"\u5f9e":3660,"\u5fa0":3661,"\u5fa1":3662,"\u5fa8":3663,"\u5fa9":3664,"\u5faa":3665,"\u5fac":3666,"\u5fad":3667,"\u5fae":3668,"\u5fb3":3669,"\u5fb4":3670,"\u5fb5":3671,"\u5fb7":3672,"\u5fb9":3673,"\u5fbd":3674,"\u5fc3":3675,"\u5fc4":3676,"\u5fc5":3677,"\u5fc6":3678,"\u5fc9":3679,"\u5fcc":3680,"\u5fcd":3681,"\u5fcf":3682,"\u5fd2":3683,"\u5fd7":3684,"\u5fd8":3685,"\u5fd9":3686,"\u5fdc":3687,"\u5fde":3688,"\u5fe0":3689,"\u5fe1":3690,"\u5fe4":3691,"\u5fe7":3692,"\u5feb":3693,"\u5ff1":3694,"\u5ff5":3695,"\u5ffb":3696,"\u5ffd":3697,"\u5fff":3698,"\u6000":3699,"\u6001":3700,"\u6002":3701,"\u600e":3702,"\u6012":3703,"\u6015":3704,"\u6016":3705,"\u6019":3706,"\u601b":3707,"\u601c":3708,"\u601d":3709,"\u6020":3710,"\u6021":3711,"\u6025":3712,"\u6026":3713,"\u6027":3714,"\u6028":3715,"\u602a":3716,"\u602f":3717,"\u603b":3718,"\u603f":3719,"\u6042":3720,"\u6043":3721,"\u6046":3722,"\u604b":3723,"\u604d":3724,"\u6050":3725,"\u6052":3726,"\u6055":3727,"\u6059":3728,"\u605a":3729,"\u6062":3730,"\u6063":3731,"\u6064":3732,"\u6065":3733,"\u6068":3734,"\u6069":3735,"\u606a":3736,"\u606b":3737,"\u606c":3738,"\u606d":3739,"\u606f":3740,"\u6070":3741,"\u6073":3742,"\u6075":3743,"\u6076":3744,"\u6078":3745,"\u607a":3746,"\u607c":3747,"\u607d":3748,"\u607f":3749,"\u6084":3750,"\u6085":3751,"\u6089":3752,"\u608c":3753,"\u608d":3754,"\u6094":3755,"\u6096":3756,"\u609a":3757,"\u609b":3758,"\u609d":3759,"\u609f":3760,"\u60a0":3761,"\u60a3":3762,"\u60a6":3763,"\u60a7":3764,"\u60a8":3765,"\u60a9":3766,"\u60aa":3767,"\u60ab":3768,"\u60ac":3769,"\u60af":3770,"\u60b0":3771,"\u60b2":3772,"\u60b3":3773,"\u60b4":3774,"\u60b6":3775,"\u60b8":3776,"\u60bc":3777,"\u60bd":3778,"\u60c5":3779,"\u60c7":3780,"\u60ca":3781,"\u60cb":3782,"\u60d1":3783,"\u60d5":3784,"\u60d8":3785,"\u60da":3786,"\u60db":3787,"\u60dc":3788,"\u60df":3789,"\u60e0":3790,"\u60e1":3791,"\u60e3":3792,"\u60e7":3793,"\u60e8":3794,"\u60e9":3795,"\u60eb":3796,"\u60ed":3797,"\u60ee":3798,"\u60ef":3799,"\u60f0":3800,"\u60f1":3801,"\u60f2":3802,"\u60f3":3803,"\u60f6":3804,"\u60f9":3805,"\u60fa":3806,"\u6101":3807,"\u6103":3808,"\u6106":3809,"\u6108":3810,"\u6109":3811,"\u610d":3812,"\u610e":3813,"\u610f":3814,"\u6114":3815,"\u6115":3816,"\u611a":3817,"\u611b":3818,"\u611f":3819,"\u6124":3820,"\u6127":3821,"\u6128":3822,"\u612b":3823,"\u6134":3824,"\u6137":3825,"\u613c":3826,"\u613e":3827,"\u613f":3828,"\u6144":3829,"\u6147":3830,"\u6148":3831,"\u614b":3832,"\u614c":3833,"\u614e":3834,"\u6151":3835,"\u6155":3836,"\u6158":3837,"\u615a":3838,"\u615c":3839,"\u615f":3840,"\u6162":3841,"\u6163":3842,"\u6164":3843,"\u6167":3844,"\u6168":3845,"\u616b":3846,"\u616e":3847,"\u6170":3848,"\u6173":3849,"\u6175":3850,"\u6176":3851,"\u6177":3852,"\u617e":3853,"\u6182":3854,"\u618a":3855,"\u618d":3856,"\u618e":3857,"\u6190":3858,"\u6191":3859,"\u6194":3860,"\u6199":3861,"\u619a":3862,"\u61a4":3863,"\u61a7":3864,"\u61a8":3865,"\u61a9":3866,"\u61ab":3867,"\u61ac":3868,"\u61b2":3869,"\u61b6":3870,"\u61ba":3871,"\u61be":3872,"\u61c2":3873,"\u61c3":3874,"\u61c7":3875,"\u61c8":3876,"\u61c9":3877,"\u61ca":3878,"\u61cb":3879,"\u61cc":3880,"\u61d0":3881,"\u61d2":3882,"\u61e6":3883,"\u61f2":3884,"\u61f5":3885,"\u61f6":3886,"\u61f7":3887,"\u61f8":3888,"\u61fa":3889,"\u61fc":3890,"\u61fe":3891,"\u61ff":3892,"\u6200":3893,"\u6208":3894,"\u620a":3895,"\u620c":3896,"\u620d":3897,"\u620e":3898,"\u620f":3899,"\u6210":3900,"\u6211":3901,"\u6212":3902,"\u6214":3903,"\u6215":3904,"\u6216":3905,"\u6218":3906,"\u621a":3907,"\u621b":3908,"\u621f":3909,"\u6221":3910,"\u6222":3911,"\u6226":3912,"\u6229":3913,"\u622a":3914,"\u622e":3915,"\u622f":3916,"\u6230":3917,"\u6231":3918,"\u6232":3919,"\u6233":3920,"\u6234":3921,"\u6236":3922,"\u6237":3923,"\u6238":3924,"\u623b":3925,"\u623e":3926,"\u623f":3927,"\u6240":3928,"\u6241":3929,"\u6246":3930,"\u6247":3931,"\u6248":3932,"\u6249":3933,"\u624b":3934,"\u624c":3935,"\u624d":3936,"\u624e":3937,"\u6251":3938,"\u6252":3939,"\u6253":3940,"\u6254":3941,"\u6255":3942,"\u6258":3943,"\u625b":3944,"\u6263":3945,"\u6266":3946,"\u6267":3947,"\u6269":3948,"\u626b":3949,"\u626c":3950,"\u626d":3951,"\u626e":3952,"\u626f":3953,"\u6270":3954,"\u6271":3955,"\u6273":3956,"\u6276":3957,"\u6279":3958,"\u627c":3959,"\u627e":3960,"\u627f":3961,"\u6280":3962,"\u6284":3963,"\u6289":3964,"\u628a":3965,"\u6291":3966,"\u6292":3967,"\u6293":3968,"\u6295":3969,"\u6296":3970,"\u6297":3971,"\u6298":3972,"\u629a":3973,"\u629b":3974,"\u629c":3975,"\u629e":3976,"\u629f":3977,"\u62a1":3978,"\u62a2":3979,"\u62a4":3980,"\u62a5":3981,"\u62a8":3982,"\u62ab":3983,"\u62ac":3984,"\u62b1":3985,"\u62b5":3986,"\u62b9":3987,"\u62bc":3988,"\u62bd":3989,"\u62c2":3990,"\u62c5":3991,"\u62c6":3992,"\u62c7":3993,"\u62c8":3994,"\u62c9":3995,"\u62cb":3996,"\u62cc":3997,"\u62cd":3998,"\u62cf":3999,"\u62d0":4000,"\u62d2":4001,"\u62d3":4002,"\u62d4":4003,"\u62d6":4004,"\u62d7":4005,"\u62d8":4006,"\u62d9":4007,"\u62da":4008,"\u62db":4009,"\u62dc":4010,"\u62dd":4011,"\u62df":4012,"\u62e0":4013,"\u62e1":4014,"\u62e2":4015,"\u62e3":4016,"\u62e5":4017,"\u62e6":4018,"\u62e8":4019,"\u62e9":4020,"\u62ec":4021,"\u62ed":4022,"\u62ee":4023,"\u62ef":4024,"\u62f1":4025,"\u62f3":4026,"\u62f4":4027,"\u62f5":4028,"\u62f6":4029,"\u62f7":4030,"\u62fc":4031,"\u62fd":4032,"\u62fe":4033,"\u62ff":4034,"\u6301":4035,"\u6302":4036,"\u6307":4037,"\u6308":4038,"\u6309":4039,"\u6311":4040,"\u6316":4041,"\u6319":4042,"\u631a":4043,"\u631b":4044,"\u631d":4045,"\u631e":4046,"\u631f":4047,"\u6320":4048,"\u6321":4049,"\u6323":4050,"\u6324":4051,"\u6325":4052,"\u6328":4053,"\u632a":4054,"\u632b":4055,"\u632f":4056,"\u6339":4057,"\u633a":4058,"\u633d":4059,"\u633e":4060,"\u633f":4061,"\u6345":4062,"\u6346":4063,"\u6349":4064,"\u634c":4065,"\u634d":4066,"\u634e":4067,"\u634f":4068,"\u6350":4069,"\u6352":4070,"\u6355":4071,"\u6357":4072,"\u635c":4073,"\u635e":4074,"\u635f":4075,"\u6361":4076,"\u6362":4077,"\u6363":4078,"\u6367":4079,"\u6368":4080,"\u6369":4081,"\u636e":4082,"\u6371":4083,"\u6372":4084,"\u6376":4085,"\u6377":4086,"\u637a":4087,"\u637b":4088,"\u6380":4089,"\u6383":4090,"\u6388":4091,"\u6389":4092,"\u638c":4093,"\u638f":4094,"\u6390":4095,"\u6392":4096,"\u6396":4097,"\u6398":4098,"\u6399":4099,"\u639b":4100,"\u639f":4101,"\u63a0":4102,"\u63a1":4103,"\u63a2":4104,"\u63a3":4105,"\u63a5":4106,"\u63a7":4107,"\u63a8":4108,"\u63a9":4109,"\u63aa":4110,"\u63ac":4111,"\u63b0":4112,"\u63b2":4113,"\u63b3":4114,"\u63b4":4115,"\u63b7":4116,"\u63b8":4117,"\u63ba":4118,"\u63bb":4119,"\u63be":4120,"\u63c0":4121,"\u63c3":4122,"\u63c4":4123,"\u63c6":4124,"\u63c9":4125,"\u63cd":4126,"\u63cf":4127,"\u63d0":4128,"\u63d2":4129,"\u63d6":4130,"\u63da":4131,"\u63db":4132,"\u63e1":4133,"\u63e3":4134,"\u63ea":4135,"\u63ed":4136,"\u63ee":4137,"\u63f4":4138,"\u63f6":4139,"\u63fa":4140,"\u63fd":4141,"\u63fe":4142,"\u6401":4143,"\u6405":4144,"\u640d":4145,"\u640f":4146,"\u6410":4147,"\u6413":4148,"\u6414":4149,"\u6416":4150,"\u6417":4151,"\u641c":4152,"\u641e":4153,"\u6426":4154,"\u642a":4155,"\u642c":4156,"\u642d":4157,"\u6435":4158,"\u6436":4159,"\u643a":4160,"\u643e":4161,"\u6442":4162,"\u6444":4163,"\u6446":4164,"\u6447":4165,"\u644a":4166,"\u6451":4167,"\u6452":4168,"\u6454":4169,"\u6458":4170,"\u6460":4171,"\u6467":4172,"\u6469":4173,"\u646d":4174,"\u646f":4175,"\u6476":4176,"\u6478":4177,"\u6479":4178,"\u647a":4179,"\u647b":4180,"\u6483":4181,"\u6487":4182,"\u6488":4183,"\u6490":4184,"\u6491":4185,"\u6492":4186,"\u6493":4187,"\u6495":4188,"\u649a":4189,"\u649e":4190,"\u64a3":4191,"\u64a4":4192,"\u64a5":4193,"\u64a9":4194,"\u64ab":4195,"\u64ac":4196,"\u64ad":4197,"\u64ae":4198,"\u64b0":4199,"\u64b2":4200,"\u64b7":4201,"\u64b9":4202,"\u64bb":4203,"\u64bc":4204,"\u64bf":4205,"\u64c1":4206,"\u64c2":4207,"\u64c4":4208,"\u64c5":4209,"\u64c7":4210,"\u64ca":4211,"\u64cb":4212,"\u64cd":4213,"\u64ce":4214,"\u64d2":4215,"\u64d4":4216,"\u64d8":4217,"\u64da":4218,"\u64e0":4219,"\u64e2":4220,"\u64e6":4221,"\u64e7":4222,"\u64ec":4223,"\u64f1":4224,"\u64f2":4225,"\u64f4":4226,"\u64f7":4227,"\u64fa":4228,"\u64fe":4229,"\u6500":4230,"\u650f":4231,"\u6512":4232,"\u6514":4233,"\u6518":4234,"\u651c":4235,"\u651d":4236,"\u6522":4237,"\u6523":4238,"\u6524":4239,"\u652a":4240,"\u652b":4241,"\u652c":4242,"\u652f":4243,"\u6536":4244,"\u6537":4245,"\u6538":4246,"\u6539":4247,"\u653b":4248,"\u653e":4249,"\u653f":4250,"\u6545":4251,"\u6548":4252,"\u654c":4253,"\u654d":4254,"\u654e":4255,"\u654f":4256,"\u6551":4257,"\u6555":4258,"\u6556":4259,"\u6557":4260,"\u6558":4261,"\u6559":4262,"\u655b":4263,"\u655d":4264,"\u655e":4265,"\u6562":4266,"\u6563":4267,"\u6566":4268,"\u656c":4269,"\u6570":4270,"\u6572":4271,"\u6574":4272,"\u6575":4273,"\u6577":4274,"\u6578":4275,"\u6582":4276,"\u6583":4277,"\u6587":4278,"\u6589":4279,"\u658b":4280,"\u658c":4281,"\u658e":4282,"\u6590":4283,"\u6591":4284,"\u6597":4285,"\u6599":4286,"\u659b":4287,"\u659c":4288,"\u659f":4289,"\u65a1":4290,"\u65a4":4291,"\u65a5":4292,"\u65a7":4293,"\u65a9":4294,"\u65ab":4295,"\u65ac":4296,"\u65ad":4297,"\u65af":4298,"\u65b0":4299,"\u65b7":4300,"\u65b9":4301,"\u65bc":4302,"\u65bd":4303,"\u65c1":4304,"\u65c3":4305,"\u65c5":4306,"\u65cb":4307,"\u65cc":4308,"\u65cf":4309,"\u65d2":4310,"\u65d7":4311,"\u65db":4312,"\u65e0":4313,"\u65e2":4314,"\u65e3":4315,"\u65e5":4316,"\u65e6":4317,"\u65e7":4318,"\u65e8":4319,"\u65e9":4320,"\u65ec":4321,"\u65ed":4322,"\u65f1":4323,"\u65f6":4324,"\u65f7":4325,"\u65f8":4326,"\u65fa":4327,"\u65fb":4328,"\u65fc":4329,"\u6600":4330,"\u6602":4331,"\u6606":4332,"\u6607":4333,"\u6609":4334,"\u660a":4335,"\u660c":4336,"\u660e":4337,"\u660f":4338,"\u6610":4339,"\u6613":4340,"\u6614":4341,"\u6615":4342,"\u6619":4343,"\u661d":4344,"\u661e":4345,"\u661f":4346,"\u6620":4347,"\u6625":4348,"\u6627":4349,"\u6628":4350,"\u662a":4351,"\u662d":4352,"\u662f":4353,"\u6630":4354,"\u6631":4355,"\u6634":4356,"\u6635":4357,"\u6636":4358,"\u663a":4359,"\u663c":4360,"\u663e":4361,"\u6641":4362,"\u6642":4363,"\u6643":4364,"\u6644":4365,"\u6649":4366,"\u664b":4367,"\u664f":4368,"\u6652":4369,"\u6653":4370,"\u6654":4371,"\u6655":4372,"\u6656":4373,"\u6657":4374,"\u6659":4375,"\u665a":4376,"\u665d":4377,"\u665e":4378,"\u665f":4379,"\u6664":4380,"\u6666":4381,"\u6667":4382,"\u6668":4383,"\u6669":4384,"\u666e":4385,"\u666f":4386,"\u6670":4387,"\u6673":4388,"\u6674":4389,"\u6676":4390,"\u6677":4391,"\u6678":4392,"\u667a":4393,"\u667e":4394,"\u6681":4395,"\u6682":4396,"\u6684":4397,"\u6687":4398,"\u6688":4399,"\u6689":4400,"\u668c":4401,"\u668e":4402,"\u6690":4403,"\u6691":4404,"\u6696":4405,"\u6697":4406,"\u6698":4407,"\u669d":4408,"\u66a0":4409,"\u66a2":4410,"\u66a6":4411,"\u66a7":4412,"\u66a8":4413,"\u66ab":4414,"\u66ae":4415,"\u66b1":4416,"\u66b2":4417,"\u66b4":4418,"\u66b9":4419,"\u66bb":4420,"\u66be":4421,"\u66c4":4422,"\u66c6":4423,"\u66c7":4424,"\u66c9":4425,"\u66d6":4426,"\u66d9":4427,"\u66dc":4428,"\u66dd":4429,"\u66e0":4430,"\u66e6":4431,"\u66e9":4432,"\u66ec":4433,"\u66f0":4434,"\u66f2":4435,"\u66f3":4436,"\u66f4":4437,"\u66f7":4438,"\u66f8":4439,"\u66f9":4440,"\u66fa":4441,"\u66fc":4442,"\u66fd":4443,"\u66fe":4444,"\u66ff":4445,"\u6700":4446,"\u6703":4447,"\u6708":4448,"\u6709":4449,"\u670b":4450,"\u670d":4451,"\u6710":4452,"\u6713":4453,"\u6714":4454,"\u6715":4455,"\u6717":4456,"\u671b":4457,"\u671d":4458,"\u671f":4459,"\u6726":4460,"\u6727":4461,"\u6728":4462,"\u672a":4463,"\u672b":4464,"\u672c":4465,"\u672d":4466,"\u672e":4467,"\u672f":4468,"\u6731":4469,"\u6734":4470,"\u6735":4471,"\u6736":4472,"\u673a":4473,"\u673d":4474,"\u6740":4475,"\u6742":4476,"\u6743":4477,"\u6746":4478,"\u6749":4479,"\u674c":4480,"\u674e":4481,"\u674f":4482,"\u6750":4483,"\u6751":4484,"\u6753":4485,"\u6756":4486,"\u6759":4487,"\u675c":4488,"\u675e":4489,"\u675f":4490,"\u6760":4491,"\u6761":4492,"\u6762":4493,"\u6763":4494,"\u6765":4495,"\u6768":4496,"\u676d":4497,"\u676e":4498,"\u676f":4499,"\u6770":4500,"\u6771":4501,"\u6772":4502,"\u6773":4503,"\u6775":4504,"\u6777":4505,"\u677c":4506,"\u677e":4507,"\u677f":4508,"\u6781":4509,"\u6784":4510,"\u6787":4511,"\u6789":4512,"\u678b":4513,"\u6790":4514,"\u6795":4515,"\u6797":4516,"\u679a":4517,"\u679c":4518,"\u679d":4519,"\u679e":4520,"\u67a0":4521,"\u67a1":4522,"\u67a2":4523,"\u67a3":4524,"\u67aa":4525,"\u67ab":4526,"\u67ad":4527,"\u67af":4528,"\u67b3":4529,"\u67b6":4530,"\u67b7":4531,"\u67b8":4532,"\u67b9":4533,"\u67c1":4534,"\u67c3":4535,"\u67c4":4536,"\u67ca":4537,"\u67cf":4538,"\u67d0":4539,"\u67d1":4540,"\u67d2":4541,"\u67d3":4542,"\u67d4":4543,"\u67d8":4544,"\u67da":4545,"\u67dc":4546,"\u67dd":4547,"\u67de":4548,"\u67e0":4549,"\u67e2":4550,"\u67e5":4551,"\u67e9":4552,"\u67ec":4553,"\u67ef":4554,"\u67f1":4555,"\u67f3":4556,"\u67f4":4557,"\u67f5":4558,"\u67fb":4559,"\u67fd":4560,"\u67fe":4561,"\u67ff":4562,"\u6802":4563,"\u6803":4564,"\u6804":4565,"\u6805":4566,"\u6807":4567,"\u6808":4568,"\u6809":4569,"\u680b":4570,"\u680e":4571,"\u680f":4572,"\u6811":4573,"\u6812":4574,"\u6813":4575,"\u6816":4576,"\u6817":4577,"\u681e":4578,"\u6821":4579,"\u6822":4580,"\u6829":4581,"\u682a":4582,"\u6831":4583,"\u6832":4584,"\u6834":4585,"\u6837":4586,"\u6838":4587,"\u6839":4588,"\u683b":4589,"\u683c":4590,"\u683d":4591,"\u683e":4592,"\u6840":4593,"\u6841":4594,"\u6842":4595,"\u6843":4596,"\u6845":4597,"\u6846":4598,"\u6848":4599,"\u6849":4600,"\u684c":4601,"\u684e":4602,"\u6850":4603,"\u6851":4604,"\u6853":4605,"\u6854":4606,"\u685c":4607,"\u685d":4608,"\u685f":4609,"\u6861":4610,"\u6862":4611,"\u6863":4612,"\u6865":4613,"\u6866":4614,"\u6867":4615,"\u6868":4616,"\u6869":4617,"\u686b":4618,"\u6876":4619,"\u6877":4620,"\u687f":4621,"\u6881":4622,"\u6883":4623,"\u6885":4624,"\u6886":4625,"\u6893":4626,"\u6894":4627,"\u6897":4628,"\u689d":4629,"\u689f":4630,"\u68a0":4631,"\u68a2":4632,"\u68a6":4633,"\u68a7":4634,"\u68a8":4635,"\u68ad":4636,"\u68af":4637,"\u68b0":4638,"\u68b1":4639,"\u68b3":4640,"\u68b5":4641,"\u68b6":4642,"\u68c0":4643,"\u68c2":4644,"\u68c4":4645,"\u68c9":4646,"\u68cb":4647,"\u68cd":4648,"\u68d2":4649,"\u68d5":4650,"\u68d7":4651,"\u68d8":4652,"\u68da":4653,"\u68df":4654,"\u68e0":4655,"\u68e3":4656,"\u68e7":4657,"\u68e8":4658,"\u68eb":4659,"\u68ee":4660,"\u68f1":4661,"\u68f2":4662,"\u68f5":4663,"\u68f9":4664,"\u68fa":4665,"\u68fb":4666,"\u6900":4667,"\u6901":4668,"\u6905":4669,"\u690b":4670,"\u690d":4671,"\u690e":4672,"\u690f":4673,"\u6912":4674,"\u6919":4675,"\u691a":4676,"\u691b":4677,"\u691c":4678,"\u692d":4679,"\u6930":4680,"\u6934":4681,"\u6939":4682,"\u693d":4683,"\u693f":4684,"\u6942":4685,"\u694a":4686,"\u6953":4687,"\u6954":4688,"\u6955":4689,"\u6959":4690,"\u695a":4691,"\u695d":4692,"\u695e":4693,"\u6960":4694,"\u6961":4695,"\u6962":4696,"\u6963":4697,"\u6968":4698,"\u696b":4699,"\u696d":4700,"\u696e":4701,"\u696f":4702,"\u6973":4703,"\u6975":4704,"\u6977":4705,"\u6978":4706,"\u6979":4707,"\u697c":4708,"\u697d":4709,"\u6982":4710,"\u6984":4711,"\u6986":4712,"\u6988":4713,"\u6989":4714,"\u698a":4715,"\u698e":4716,"\u6991":4717,"\u6994":4718,"\u6995":4719,"\u6996":4720,"\u6998":4721,"\u699b":4722,"\u699c":4723,"\u69a7":4724,"\u69a8":4725,"\u69ab":4726,"\u69ad":4727,"\u69ae":4728,"\u69b4":4729,"\u69b7":4730,"\u69bb":4731,"\u69c1":4732,"\u69c3":4733,"\u69c7":4734,"\u69ca":4735,"\u69cb":4736,"\u69cc":4737,"\u69cd":4738,"\u69ce":4739,"\u69d0":4740,"\u69d3":4741,"\u69d8":4742,"\u69d9":4743,"\u69db":4744,"\u69df":4745,"\u69e4":4746,"\u69e8":4747,"\u69ea":4748,"\u69ed":4749,"\u69f2":4750,"\u69f3":4751,"\u69fa":4752,"\u69fb":4753,"\u69fd":4754,"\u69ff":4755,"\u6a01":4756,"\u6a02":4757,"\u6a05":4758,"\u6a0a":4759,"\u6a0b":4760,"\u6a11":4761,"\u6a13":4762,"\u6a17":4763,"\u6a19":4764,"\u6a1e":4765,"\u6a1f":4766,"\u6a21":4767,"\u6a23":4768,"\u6a28":4769,"\u6a29":4770,"\u6a2a":4771,"\u6a2b":4772,"\u6a31":4773,"\u6a35":4774,"\u6a38":4775,"\u6a39":4776,"\u6a3a":4777,"\u6a3d":4778,"\u6a3e":4779,"\u6a44":4780,"\u6a47":4781,"\u6a48":4782,"\u6a4b":4783,"\u6a50":4784,"\u6a58":4785,"\u6a59":4786,"\u6a5f":4787,"\u6a61":4788,"\u6a62":4789,"\u6a6b":4790,"\u6a71":4791,"\u6a79":4792,"\u6a7f":4793,"\u6a80":4794,"\u6a84":4795,"\u6a89":4796,"\u6a8e":4797,"\u6a90":4798,"\u6a94":4799,"\u6a97":4800,"\u6a9c":4801,"\u6aa2":4802,"\u6aa3":4803,"\u6aac":4804,"\u6aaf":4805,"\u6ab3":4806,"\u6ab8":4807,"\u6abb":4808,"\u6ac2":4809,"\u6ac3":4810,"\u6ad3":4811,"\u6ada":4812,"\u6adb":4813,"\u6adf":4814,"\u6ae5":4815,"\u6ae8":4816,"\u6af8":4817,"\u6afb":4818,"\u6b04":4819,"\u6b05":4820,"\u6b09":4821,"\u6b0a":4822,"\u6b12":4823,"\u6b16":4824,"\u6b1e":4825,"\u6b20":4826,"\u6b21":4827,"\u6b22":4828,"\u6b23":4829,"\u6b24":4830,"\u6b27":4831,"\u6b32":4832,"\u6b3a":4833,"\u6b3d":4834,"\u6b3e":4835,"\u6b46":4836,"\u6b47":4837,"\u6b49":4838,"\u6b4c":4839,"\u6b4e":4840,"\u6b50":4841,"\u6b53":4842,"\u6b59":4843,"\u6b5f":4844,"\u6b61":4845,"\u6b62":4846,"\u6b63":4847,"\u6b64":4848,"\u6b65":4849,"\u6b66":4850,"\u6b67":4851,"\u6b69":4852,"\u6b6a":4853,"\u6b6f":4854,"\u6b72":4855,"\u6b73":4856,"\u6b74":4857,"\u6b77":4858,"\u6b78":4859,"\u6b79":4860,"\u6b7b":4861,"\u6b7c":4862,"\u6b7f":4863,"\u6b81":4864,"\u6b83":4865,"\u6b86":4866,"\u6b87":4867,"\u6b89":4868,"\u6b8a":4869,"\u6b8b":4870,"\u6b92":4871,"\u6b93":4872,"\u6b96":4873,"\u6b98":4874,"\u6b9e":4875,"\u6ba1":4876,"\u6ba4":4877,"\u6bad":4878,"\u6bae":4879,"\u6baf":4880,"\u6bb2":4881,"\u6bb4":4882,"\u6bb5":4883,"\u6bb7":4884,"\u6bba":4885,"\u6bbb":4886,"\u6bbc":4887,"\u6bbf":4888,"\u6bc0":4889,"\u6bc1":4890,"\u6bc2":4891,"\u6bc5":4892,"\u6bc6":4893,"\u6bcb":4894,"\u6bcc":4895,"\u6bcd":4896,"\u6bce":4897,"\u6bcf":4898,"\u6bd2":4899,"\u6bd3":4900,"\u6bd4":4901,"\u6bd5":4902,"\u6bd6":4903,"\u6bd7":4904,"\u6bd8":4905,"\u6bd9":4906,"\u6bdb":4907,"\u6be1":4908,"\u6beb":4909,"\u6bec":4910,"\u6bef":4911,"\u6bfd":4912,"\u6c02":4913,"\u6c08":4914,"\u6c0f":4915,"\u6c10":4916,"\u6c11":4917,"\u6c13":4918,"\u6c14":4919,"\u6c16":4920,"\u6c17":4921,"\u6c18":4922,"\u6c19":4923,"\u6c1a":4924,"\u6c1b":4925,"\u6c1f":4926,"\u6c21":4927,"\u6c22":4928,"\u6c23":4929,"\u6c26":4930,"\u6c27":4931,"\u6c28":4932,"\u6c29":4933,"\u6c2a":4934,"\u6c2b":4935,"\u6c2c":4936,"\u6c2e":4937,"\u6c2f":4938,"\u6c30":4939,"\u6c34":4940,"\u6c35":4941,"\u6c37":4942,"\u6c38":4943,"\u6c39":4944,"\u6c3e":4945,"\u6c40":4946,"\u6c41":4947,"\u6c42":4948,"\u6c47":4949,"\u6c49":4950,"\u6c4a":4951,"\u6c4e":4952,"\u6c50":4953,"\u6c55":4954,"\u6c57":4955,"\u6c59":4956,"\u6c5a":4957,"\u6c5b":4958,"\u6c5c":4959,"\u6c5d":4960,"\u6c5e":4961,"\u6c5f":4962,"\u6c60":4963,"\u6c61":4964,"\u6c64":4965,"\u6c67":4966,"\u6c68":4967,"\u6c6a":4968,"\u6c6d":4969,"\u6c70":4970,"\u6c72":4971,"\u6c74":4972,"\u6c76":4973,"\u6c79":4974,"\u6c7a":4975,"\u6c7d":4976,"\u6c7e":4977,"\u6c81":4978,"\u6c82":4979,"\u6c83":4980,"\u6c84":4981,"\u6c85":4982,"\u6c86":4983,"\u6c88":4984,"\u6c89":4985,"\u6c8c":4986,"\u6c90":4987,"\u6c92":4988,"\u6c93":4989,"\u6c94":4990,"\u6c96":4991,"\u6c99":4992,"\u6c9b":4993,"\u6c9f":4994,"\u6ca1":4995,"\u6ca2":4996,"\u6ca3":4997,"\u6ca5":4998,"\u6ca6":4999,"\u6ca7":5000,"\u6caa":5001,"\u6cab":5002,"\u6cad":5003,"\u6cae":5004,"\u6cb1":5005,"\u6cb3":5006,"\u6cb8":5007,"\u6cb9":5008,"\u6cbb":5009,"\u6cbc":5010,"\u6cbd":5011,"\u6cbe":5012,"\u6cbf":5013,"\u6cc1":5014,"\u6cc4":5015,"\u6cc9":5016,"\u6cca":5017,"\u6ccc":5018,"\u6cd3":5019,"\u6cd5":5020,"\u6cd7":5021,"\u6cda":5022,"\u6cdb":5023,"\u6cde":5024,"\u6ce0":5025,"\u6ce1":5026,"\u6ce2":5027,"\u6ce3":5028,"\u6ce5":5029,"\u6ce8":5030,"\u6cea":5031,"\u6ceb":5032,"\u6cee":5033,"\u6cef":5034,"\u6cf0":5035,"\u6cf1":5036,"\u6cf3":5037,"\u6cf5":5038,"\u6cf7":5039,"\u6cf8":5040,"\u6cfb":5041,"\u6cfc":5042,"\u6cfd":5043,"\u6cfe":5044,"\u6d01":5045,"\u6d04":5046,"\u6d0b":5047,"\u6d0e":5048,"\u6d12":5049,"\u6d17":5050,"\u6d19":5051,"\u6d1b":5052,"\u6d1e":5053,"\u6d25":5054,"\u6d27":5055,"\u6d29":5056,"\u6d2a":5057,"\u6d2e":5058,"\u6d31":5059,"\u6d32":5060,"\u6d35":5061,"\u6d36":5062,"\u6d38":5063,"\u6d39":5064,"\u6d3a":5065,"\u6d3b":5066,"\u6d3c":5067,"\u6d3d":5068,"\u6d3e":5069,"\u6d41":5070,"\u6d44":5071,"\u6d45":5072,"\u6d46":5073,"\u6d47":5074,"\u6d4a":5075,"\u6d4b":5076,"\u6d4e":5077,"\u6d4f":5078,"\u6d51":5079,"\u6d52":5080,"\u6d53":5081,"\u6d54":5082,"\u6d59":5083,"\u6d5a":5084,"\u6d5c":5085,"\u6d5e":5086,"\u6d60":5087,"\u6d63":5088,"\u6d64":5089,"\u6d66":5090,"\u6d69":5091,"\u6d6a":5092,"\u6d6c":5093,"\u6d6e":5094,"\u6d6f":5095,"\u6d74":5096,"\u6d77":5097,"\u6d78":5098,"\u6d82":5099,"\u6d85":5100,"\u6d87":5101,"\u6d88":5102,"\u6d89":5103,"\u6d8c":5104,"\u6d8e":5105,"\u6d93":5106,"\u6d94":5107,"\u6d95":5108,"\u6d99":5109,"\u6d9b":5110,"\u6d9c":5111,"\u6d9d":5112,"\u6d9e":5113,"\u6d9f":5114,"\u6da1":5115,"\u6da3":5116,"\u6da4":5117,"\u6da6":5118,"\u6da7":5119,"\u6da8":5120,"\u6da9":5121,"\u6daa":5122,"\u6dae":5123,"\u6daf":5124,"\u6db2":5125,"\u6db5":5126,"\u6db8":5127,"\u6dbc":5128,"\u6dbf":5129,"\u6dc0":5130,"\u6dc4":5131,"\u6dc5":5132,"\u6dc6":5133,"\u6dc7":5134,"\u6dcb":5135,"\u6dcc":5136,"\u6dd1":5137,"\u6dd2":5138,"\u6dd6":5139,"\u6dd8":5140,"\u6dd9":5141,"\u6dda":5142,"\u6ddd":5143,"\u6dde":5144,"\u6de1":5145,"\u6de4":5146,"\u6de6":5147,"\u6de8":5148,"\u6de9":5149,"\u6dea":5150,"\u6deb":5151,"\u6dec":5152,"\u6dee":5153,"\u6def":5154,"\u6df1":5155,"\u6df3":5156,"\u6df5":5157,"\u6df6":5158,"\u6df7":5159,"\u6df8":5160,"\u6df9":5161,"\u6dfa":5162,"\u6dfb":5163,"\u6dfc":5164,"\u6e05":5165,"\u6e07":5166,"\u6e08":5167,"\u6e09":5168,"\u6e0a":5169,"\u6e0b":5170,"\u6e0d":5171,"\u6e0e":5172,"\u6e10":5173,"\u6e13":5174,"\u6e14":5175,"\u6e15":5176,"\u6e17":5177,"\u6e19":5178,"\u6e1a":5179,"\u6e1b":5180,"\u6e1d":5181,"\u6e1f":5182,"\u6e20":5183,"\u6e21":5184,"\u6e23":5185,"\u6e24":5186,"\u6e25":5187,"\u6e26":5188,"\u6e29":5189,"\u6e2b":5190,"\u6e2c":5191,"\u6e2d":5192,"\u6e2f":5193,"\u6e32":5194,"\u6e34":5195,"\u6e38":5196,"\u6e3a":5197,"\u6e3e":5198,"\u6e43":5199,"\u6e44":5200,"\u6e4a":5201,"\u6e4d":5202,"\u6e56":5203,"\u6e58":5204,"\u6e5b":5205,"\u6e5c":5206,"\u6e5f":5207,"\u6e63":5208,"\u6e67":5209,"\u6e6b":5210,"\u6e6e":5211,"\u6e6f":5212,"\u6e73":5213,"\u6e7e":5214,"\u6e7f":5215,"\u6e80":5216,"\u6e83":5217,"\u6e85":5218,"\u6e86":5219,"\u6e89":5220,"\u6e8f":5221,"\u6e90":5222,"\u6e96":5223,"\u6e9c":5224,"\u6e9d":5225,"\u6e9f":5226,"\u6ea2":5227,"\u6ea5":5228,"\u6ea7":5229,"\u6eaa":5230,"\u6eab":5231,"\u6eaf":5232,"\u6eb1":5233,"\u6eb2":5234,"\u6eb4":5235,"\u6eb6":5236,"\u6eba":5237,"\u6ebc":5238,"\u6ec1":5239,"\u6ec2":5240,"\u6ec4":5241,"\u6ec5":5242,"\u6ec7":5243,"\u6ec9":5244,"\u6ecb":5245,"\u6ecc":5246,"\u6ece":5247,"\u6ecf":5248,"\u6ed1":5249,"\u6ed3":5250,"\u6ed4":5251,"\u6ed5":5252,"\u6ed8":5253,"\u6ed9":5254,"\u6eda":5255,"\u6edd":5256,"\u6ede":5257,"\u6ee1":5258,"\u6ee2":5259,"\u6ee4":5260,"\u6ee5":5261,"\u6ee6":5262,"\u6ee8":5263,"\u6ee9":5264,"\u6eec":5265,"\u6eef":5266,"\u6ef2":5267,"\u6ef4":5268,"\u6ef7":5269,"\u6ef8":5270,"\u6ef9":5271,"\u6efe":5272,"\u6eff":5273,"\u6f01":5274,"\u6f02":5275,"\u6f06":5276,"\u6f09":5277,"\u6f0f":5278,"\u6f11":5279,"\u6f13":5280,"\u6f14":5281,"\u6f15":5282,"\u6f20":5283,"\u6f22":5284,"\u6f23":5285,"\u6f29":5286,"\u6f2a":5287,"\u6f2b":5288,"\u6f2c":5289,"\u6f2f":5290,"\u6f31":5291,"\u6f32":5292,"\u6f33":5293,"\u6f35":5294,"\u6f38":5295,"\u6f3e":5296,"\u6f3f":5297,"\u6f41":5298,"\u6f47":5299,"\u6f4d":5300,"\u6f51":5301,"\u6f54":5302,"\u6f58":5303,"\u6f5b":5304,"\u6f5c":5305,"\u6f5e":5306,"\u6f5f":5307,"\u6f62":5308,"\u6f64":5309,"\u6f66":5310,"\u6f6d":5311,"\u6f6e":5312,"\u6f6f":5313,"\u6f70":5314,"\u6f74":5315,"\u6f7a":5316,"\u6f7c":5317,"\u6f7e":5318,"\u6f80":5319,"\u6f81":5320,"\u6f82":5321,"\u6f84":5322,"\u6f86":5323,"\u6f87":5324,"\u6f88":5325,"\u6f8d":5326,"\u6f8e":5327,"\u6f97":5328,"\u6f9c":5329,"\u6fa0":5330,"\u6fa1":5331,"\u6fa4":5332,"\u6fa7":5333,"\u6faa":5334,"\u6fae":5335,"\u6fb1":5336,"\u6fb3":5337,"\u6fb6":5338,"\u6fb9":5339,"\u6fc0":5340,"\u6fc1":5341,"\u6fc2":5342,"\u6fc3":5343,"\u6fc9":5344,"\u6fca":5345,"\u6fd1":5346,"\u6fd2":5347,"\u6fd5":5348,"\u6fd8":5349,"\u6fdb":5350,"\u6fde":5351,"\u6fdf":5352,"\u6fe0":5353,"\u6fe1":5354,"\u6fe4":5355,"\u6feb":5356,"\u6fec":5357,"\u6fee":5358,"\u6fef":5359,"\u6ff0":5360,"\u6ff1":5361,"\u6ff5":5362,"\u6ffa":5363,"\u6ffe":5364,"\u7005":5365,"\u7006":5366,"\u7009":5367,"\u700b":5368,"\u700f":5369,"\u7011":5370,"\u7015":5371,"\u7018":5372,"\u701a":5373,"\u701b":5374,"\u701d":5375,"\u701e":5376,"\u701f":5377,"\u7027":5378,"\u7028":5379,"\u702c":5380,"\u7030":5381,"\u703e":5382,"\u7043":5383,"\u704c":5384,"\u704f":5385,"\u7051":5386,"\u7055":5387,"\u7058":5388,"\u705d":5389,"\u705e":5390,"\u7063":5391,"\u7064":5392,"\u706b":5393,"\u706d":5394,"\u706f":5395,"\u7070":5396,"\u7075":5397,"\u7076":5398,"\u7078":5399,"\u707c":5400,"\u707d":5401,"\u707e":5402,"\u707f":5403,"\u7080":5404,"\u7081":5405,"\u7085":5406,"\u7086":5407,"\u7089":5408,"\u708a":5409,"\u708e":5410,"\u7092":5411,"\u7094":5412,"\u7095":5413,"\u7096":5414,"\u7098":5415,"\u7099":5416,"\u709c":5417,"\u70a4":5418,"\u70ab":5419,"\u70ac":5420,"\u70ad":5421,"\u70ae":5422,"\u70af":5423,"\u70b1":5424,"\u70b3":5425,"\u70b8":5426,"\u70b9":5427,"\u70ba":5428,"\u70bc":5429,"\u70bd":5430,"\u70c1":5431,"\u70c2":5432,"\u70c3":5433,"\u70c8":5434,"\u70cf":5435,"\u70d8":5436,"\u70d9":5437,"\u70db":5438,"\u70dc":5439,"\u70dd":5440,"\u70df":5441,"\u70e4":5442,"\u70e6":5443,"\u70e7":5444,"\u70e8":5445,"\u70e9":5446,"\u70eb":5447,"\u70ec":5448,"\u70ed":5449,"\u70ef":5450,"\u70f4":5451,"\u70f7":5452,"\u70f9":5453,"\u70fa":5454,"\u70fd":5455,"\u7109":5456,"\u710a":5457,"\u7113":5458,"\u7114":5459,"\u7115":5460,"\u7117":5461,"\u7118":5462,"\u7119":5463,"\u711a":5464,"\u711c":5465,"\u7121":5466,"\u7126":5467,"\u712f":5468,"\u7130":5469,"\u7131":5470,"\u7136":5471,"\u713c":5472,"\u7147":5473,"\u7149":5474,"\u714a":5475,"\u714c":5476,"\u714e":5477,"\u7152":5478,"\u7155":5479,"\u7156":5480,"\u7159":5481,"\u715a":5482,"\u715c":5483,"\u715e":5484,"\u7164":5485,"\u7165":5486,"\u7166":5487,"\u7167":5488,"\u7168":5489,"\u7169":5490,"\u716c":5491,"\u716e":5492,"\u7172":5493,"\u717d":5494,"\u7184":5495,"\u7188":5496,"\u718a":5497,"\u718f":5498,"\u7192":5499,"\u7194":5500,"\u7199":5501,"\u719f":5502,"\u71a0":5503,"\u71a8":5504,"\u71ac":5505,"\u71b1":5506,"\u71b2":5507,"\u71b5":5508,"\u71b9":5509,"\u71be":5510,"\u71c1":5511,"\u71c3":5512,"\u71c4":5513,"\u71c8":5514,"\u71c9":5515,"\u71ca":5516,"\u71ce":5517,"\u71d0":5518,"\u71d2":5519,"\u71d4":5520,"\u71d5":5521,"\u71d7":5522,"\u71d9":5523,"\u71df":5524,"\u71e5":5525,"\u71e6":5526,"\u71e7":5527,"\u71ec":5528,"\u71ed":5529,"\u71ee":5530,"\u71f4":5531,"\u71f9":5532,"\u71fb":5533,"\u71fc":5534,"\u71fe":5535,"\u71ff":5536,"\u7200":5537,"\u7206":5538,"\u720d":5539,"\u7210":5540,"\u721b":5541,"\u7228":5542,"\u722a":5543,"\u722c":5544,"\u722d":5545,"\u7230":5546,"\u7231":5547,"\u7232":5548,"\u7235":5549,"\u7236":5550,"\u7237":5551,"\u7238":5552,"\u7239":5553,"\u723a":5554,"\u723b":5555,"\u723d":5556,"\u723e":5557,"\u7242":5558,"\u7246":5559,"\u7247":5560,"\u7248":5561,"\u724c":5562,"\u724d":5563,"\u7252":5564,"\u7258":5565,"\u7259":5566,"\u725b":5567,"\u725d":5568,"\u725f":5569,"\u7260":5570,"\u7261":5571,"\u7262":5572,"\u7267":5573,"\u7269":5574,"\u726f":5575,"\u7272":5576,"\u7274":5577,"\u7275":5578,"\u7279":5579,"\u727a":5580,"\u727b":5581,"\u727d":5582,"\u7280":5583,"\u7281":5584,"\u7282":5585,"\u7284":5586,"\u728a":5587,"\u728d":5588,"\u7292":5589,"\u729b":5590,"\u72a0":5591,"\u72a2":5592,"\u72a7":5593,"\u72ac":5594,"\u72af":5595,"\u72b0":5596,"\u72b6":5597,"\u72b7":5598,"\u72b8":5599,"\u72b9":5600,"\u72bd":5601,"\u72c0":5602,"\u72c2":5603,"\u72c4":5604,"\u72c8":5605,"\u72cd":5606,"\u72ce":5607,"\u72d0":5608,"\u72d2":5609,"\u72d7":5610,"\u72d9":5611,"\u72db":5612,"\u72e0":5613,"\u72e1":5614,"\u72e8":5615,"\u72e9":5616,"\u72ec":5617,"\u72ed":5618,"\u72ee":5619,"\u72f1":5620,"\u72f3":5621,"\u72f7":5622,"\u72f8":5623,"\u72f9":5624,"\u72fc":5625,"\u72fd":5626,"\u7301":5627,"\u730a":5628,"\u730e":5629,"\u7315":5630,"\u7316":5631,"\u7317":5632,"\u731b":5633,"\u731c":5634,"\u731d":5635,"\u731e":5636,"\u731f":5637,"\u7325":5638,"\u7329":5639,"\u732a":5640,"\u732b":5641,"\u732c":5642,"\u732e":5643,"\u7334":5644,"\u7336":5645,"\u7337":5646,"\u733e":5647,"\u733f":5648,"\u7341":5649,"\u7344":5650,"\u7345":5651,"\u734e":5652,"\u734f":5653,"\u7350":5654,"\u7352":5655,"\u7357":5656,"\u7360":5657,"\u7363":5658,"\u7368":5659,"\u736c":5660,"\u736d":5661,"\u7370":5662,"\u7372":5663,"\u7374":5664,"\u7375":5665,"\u7377":5666,"\u7378":5667,"\u737a":5668,"\u737b":5669,"\u737c":5670,"\u737e":5671,"\u7384":5672,"\u7386":5673,"\u7387":5674,"\u7389":5675,"\u738b":5676,"\u7391":5677,"\u7395":5678,"\u7396":5679,"\u7398":5680,"\u739b":5681,"\u739f":5682,"\u73a0":5683,"\u73a2":5684,"\u73a5":5685,"\u73a9":5686,"\u73ab":5687,"\u73ae":5688,"\u73af":5689,"\u73b0":5690,"\u73b2":5691,"\u73b3":5692,"\u73b7":5693,"\u73b9":5694,"\u73ba":5695,"\u73bb":5696,"\u73c0":5697,"\u73c2":5698,"\u73c5":5699,"\u73c8":5700,"\u73c9":5701,"\u73ca":5702,"\u73cd":5703,"\u73cf":5704,"\u73d0":5705,"\u73d1":5706,"\u73d9":5707,"\u73dd":5708,"\u73de":5709,"\u73e0":5710,"\u73e3":5711,"\u73e5":5712,"\u73e6":5713,"\u73e9":5714,"\u73ea":5715,"\u73ed":5716,"\u73ee":5717,"\u73f2":5718,"\u73fa":5719,"\u73fd":5720,"\u73fe":5721,"\u7403":5722,"\u7405":5723,"\u7406":5724,"\u7407":5725,"\u7409":5726,"\u740a":5727,"\u740d":5728,"\u740f":5729,"\u7410":5730,"\u741a":5731,"\u741b":5732,"\u7422":5733,"\u7424":5734,"\u7425":5735,"\u7426":5736,"\u7428":5737,"\u742a":5738,"\u742c":5739,"\u742e":5740,"\u742f":5741,"\u7430":5742,"\u7432":5743,"\u7433":5744,"\u7434":5745,"\u7435":5746,"\u7436":5747,"\u743a":5748,"\u743c":5749,"\u743f":5750,"\u7440":5751,"\u7441":5752,"\u7444":5753,"\u7448":5754,"\u744a":5755,"\u744b":5756,"\u7455":5757,"\u7457":5758,"\u7459":5759,"\u745a":5760,"\u745b":5761,"\u745c":5762,"\u745e":5763,"\u745f":5764,"\u7460":5765,"\u7462":5766,"\u7463":5767,"\u7464":5768,"\u7469":5769,"\u746a":5770,"\u746d":5771,"\u746f":5772,"\u7470":5773,"\u7471":5774,"\u7473":5775,"\u7476":5776,"\u7477":5777,"\u747e":5778,"\u7480":5779,"\u7481":5780,"\u7483":5781,"\u7486":5782,"\u7487":5783,"\u7488":5784,"\u7489":5785,"\u748b":5786,"\u7490":5787,"\u7498":5788,"\u749c":5789,"\u749e":5790,"\u749f":5791,"\u74a0":5792,"\u74a3":5793,"\u74a5":5794,"\u74a6":5795,"\u74a7":5796,"\u74a8":5797,"\u74a9":5798,"\u74aa":5799,"\u74b0":5800,"\u74b2":5801,"\u74b9":5802,"\u74bd":5803,"\u74bf":5804,"\u74ca":5805,"\u74cc":5806,"\u74cf":5807,"\u74d2":5808,"\u74d4":5809,"\u74d8":5810,"\u74da":5811,"\u74db":5812,"\u74dc":5813,"\u74e0":5814,"\u74e2":5815,"\u74e3":5816,"\u74e6":5817,"\u74e9":5818,"\u74ee":5819,"\u74ef":5820,"\u74f6":5821,"\u74f7":5822,"\u7504":5823,"\u750c":5824,"\u7511":5825,"\u7515":5826,"\u7518":5827,"\u751a":5828,"\u751c":5829,"\u751f":5830,"\u7521":5831,"\u7522":5832,"\u7523":5833,"\u7525":5834,"\u7526":5835,"\u7528":5836,"\u7529":5837,"\u752b":5838,"\u752c":5839,"\u752f":5840,"\u7530":5841,"\u7531":5842,"\u7532":5843,"\u7533":5844,"\u7535":5845,"\u7537":5846,"\u7538":5847,"\u753a":5848,"\u753b":5849,"\u753e":5850,"\u7540":5851,"\u7545":5852,"\u7548":5853,"\u754b":5854,"\u754c":5855,"\u754f":5856,"\u7551":5857,"\u7554":5858,"\u7559":5859,"\u755c":5860,"\u755d":5861,"\u7560":5862,"\u7562":5863,"\u7564":5864,"\u7565":5865,"\u7566":5866,"\u756a":5867,"\u756b":5868,"\u756c":5869,"\u756f":5870,"\u7570":5871,"\u7572":5872,"\u7573":5873,"\u7574":5874,"\u7575":5875,"\u7576":5876,"\u7577":5877,"\u7578":5878,"\u7579":5879,"\u757f":5880,"\u7583":5881,"\u7586":5882,"\u7587":5883,"\u758a":5884,"\u758b":5885,"\u758d":5886,"\u758e":5887,"\u758f":5888,"\u7591":5889,"\u7592":5890,"\u7597":5891,"\u7599":5892,"\u759a":5893,"\u759d":5894,"\u759f":5895,"\u75a1":5896,"\u75a3":5897,"\u75a4":5898,"\u75a5":5899,"\u75ab":5900,"\u75ae":5901,"\u75af":5902,"\u75b1":5903,"\u75b2":5904,"\u75b5":5905,"\u75b8":5906,"\u75b9":5907,"\u75bc":5908,"\u75bd":5909,"\u75be":5910,"\u75c2":5911,"\u75c5":5912,"\u75c7":5913,"\u75c9":5914,"\u75ca":5915,"\u75cd":5916,"\u75d2":5917,"\u75d4":5918,"\u75d5":5919,"\u75d8":5920,"\u75d9":5921,"\u75db":5922,"\u75de":5923,"\u75e2":5924,"\u75e3":5925,"\u75e4":5926,"\u75e9":5927,"\u75ea":5928,"\u75eb":5929,"\u75f0":5930,"\u75f2":5931,"\u75f4":5932,"\u75f9":5933,"\u75fa":5934,"\u7600":5935,"\u7601":5936,"\u760b":5937,"\u760d":5938,"\u7613":5939,"\u7619":5940,"\u761f":5941,"\u7620":5942,"\u7621":5943,"\u7622":5944,"\u7624":5945,"\u7626":5946,"\u7627":5947,"\u7629":5948,"\u762b":5949,"\u7634":5950,"\u763e":5951,"\u7642":5952,"\u7647":5953,"\u764c":5954,"\u7652":5955,"\u7656":5956,"\u7661":5957,"\u7662":5958,"\u7663":5959,"\u7665":5960,"\u7669":5961,"\u766a":5962,"\u766b":5963,"\u766c":5964,"\u766e":5965,"\u7671":5966,"\u7672":5967,"\u7678":5968,"\u767a":5969,"\u767b":5970,"\u767c":5971,"\u767d":5972,"\u767e":5973,"\u7682":5974,"\u7684":5975,"\u7686":5976,"\u7687":5977,"\u7688":5978,"\u768b":5979,"\u768e":5980,"\u7690":5981,"\u7693":5982,"\u7696":5983,"\u7699":5984,"\u769d":5985,"\u76ae":5986,"\u76b0":5987,"\u76b1":5988,"\u76ba":5989,"\u76bf":5990,"\u76c2":5991,"\u76c3":5992,"\u76c5":5993,"\u76c6":5994,"\u76c8":5995,"\u76ca":5996,"\u76ce":5997,"\u76cf":5998,"\u76d0":5999,"\u76d1":6000,"\u76d2":6001,"\u76d4":6002,"\u76d6":6003,"\u76d7":6004,"\u76d8":6005,"\u76db":6006,"\u76dc":6007,"\u76de":6008,"\u76df":6009,"\u76e1":6010,"\u76e3":6011,"\u76e4":6012,"\u76e5":6013,"\u76e7":6014,"\u76e9":6015,"\u76ea":6016,"\u76ee":6017,"\u76ef":6018,"\u76f1":6019,"\u76f2":6020,"\u76f4":6021,"\u76f8":6022,"\u76fc":6023,"\u76fe":6024,"\u7701":6025,"\u7708":6026,"\u7709":6027,"\u770b":6028,"\u770c":6029,"\u7719":6030,"\u771e":6031,"\u771f":6032,"\u7720":6033,"\u7728":6034,"\u7729":6035,"\u772d":6036,"\u7736":6037,"\u7737":6038,"\u7738":6039,"\u773a":6040,"\u773c":6041,"\u773e":6042,"\u7740":6043,"\u7741":6044,"\u7747":6045,"\u7750":6046,"\u7751":6047,"\u775b":6048,"\u775c":6049,"\u775e":6050,"\u7761":6051,"\u7762":6052,"\u7763":6053,"\u7766":6054,"\u7768":6055,"\u776a":6056,"\u776b":6057,"\u776c":6058,"\u7779":6059,"\u777a":6060,"\u777d":6061,"\u777e":6062,"\u777f":6063,"\u7784":6064,"\u778b":6065,"\u778c":6066,"\u778e":6067,"\u7791":6068,"\u7792":6069,"\u779e":6070,"\u77a5":6071,"\u77a7":6072,"\u77a9":6073,"\u77aa":6074,"\u77ac":6075,"\u77ad":6076,"\u77b0":6077,"\u77b3":6078,"\u77bb":6079,"\u77bc":6080,"\u77bd":6081,"\u77bf":6082,"\u77c7":6083,"\u77cd":6084,"\u77d7":6085,"\u77da":6086,"\u77db":6087,"\u77dc":6088,"\u77e2":6089,"\u77e3":6090,"\u77e5":6091,"\u77e7":6092,"\u77e9":6093,"\u77eb":6094,"\u77ed":6095,"\u77ee":6096,"\u77ef":6097,"\u77f3":6098,"\u77f6":6099,"\u77fd":6100,"\u77fe":6101,"\u77ff":6102,"\u7800":6103,"\u7801":6104,"\u7802":6105,"\u780c":6106,"\u780d":6107,"\u7812":6108,"\u7814":6109,"\u7815":6110,"\u7816":6111,"\u781a":6112,"\u781c":6113,"\u7825":6114,"\u7826":6115,"\u7827":6116,"\u782c":6117,"\u782d":6118,"\u7830":6119,"\u7832":6120,"\u7834":6121,"\u7835":6122,"\u7837":6123,"\u7838":6124,"\u783a":6125,"\u783e":6126,"\u783f":6127,"\u7840":6128,"\u7843":6129,"\u7845":6130,"\u784f":6131,"\u7850":6132,"\u7852":6133,"\u7855":6134,"\u7856":6135,"\u785d":6136,"\u7864":6137,"\u786b":6138,"\u786c":6139,"\u786e":6140,"\u786f":6141,"\u787c":6142,"\u7881":6143,"\u7887":6144,"\u7889":6145,"\u788c":6146,"\u788d":6147,"\u788e":6148,"\u7891":6149,"\u7893":6150,"\u7895":6151,"\u7897":6152,"\u7898":6153,"\u789a":6154,"\u789b":6155,"\u789f":6156,"\u78a3":6157,"\u78a7":6158,"\u78a9":6159,"\u78ad":6160,"\u78b0":6161,"\u78b1":6162,"\u78b2":6163,"\u78b3":6164,"\u78b4":6165,"\u78b6":6166,"\u78b8":6167,"\u78ba":6168,"\u78bc":6169,"\u78be":6170,"\u78c1":6171,"\u78c5":6172,"\u78ca":6173,"\u78cb":6174,"\u78d0":6175,"\u78d4":6176,"\u78d5":6177,"\u78d8":6178,"\u78da":6179,"\u78e1":6180,"\u78e7":6181,"\u78e8":6182,"\u78ec":6183,"\u78ef":6184,"\u78f4":6185,"\u78f7":6186,"\u78fa":6187,"\u78fb":6188,"\u78fe":6189,"\u7901":6190,"\u790e":6191,"\u7912":6192,"\u7919":6193,"\u7926":6194,"\u792a":6195,"\u792b":6196,"\u792c":6197,"\u7934":6198,"\u793a":6199,"\u793c":6200,"\u793d":6201,"\u793e":6202,"\u7940":6203,"\u7941":6204,"\u7942":6205,"\u7946":6206,"\u7947":6207,"\u7948":6208,"\u7949":6209,"\u794e":6210,"\u794f":6211,"\u7950":6212,"\u7953":6213,"\u7954":6214,"\u7955":6215,"\u7956":6216,"\u7957":6217,"\u795a":6218,"\u795b":6219,"\u795c":6220,"\u795d":6221,"\u795e":6222,"\u795f":6223,"\u7960":6224,"\u7962":6225,"\u7965":6226,"\u7968":6227,"\u796d":6228,"\u796f":6229,"\u7977":6230,"\u7978":6231,"\u797a":6232,"\u797f":6233,"\u7980":6234,"\u7981":6235,"\u7984":6236,"\u7985":6237,"\u798a":6238,"\u798d":6239,"\u798e":6240,"\u798f":6241,"\u7991":6242,"\u7994":6243,"\u7995":6244,"\u799b":6245,"\u79a6":6246,"\u79a7":6247,"\u79a9":6248,"\u79aa":6249,"\u79ae":6250,"\u79b0":6251,"\u79b1":6252,"\u79b9":6253,"\u79ba":6254,"\u79bb":6255,"\u79bd":6256,"\u79be":6257,"\u79bf":6258,"\u79c0":6259,"\u79c1":6260,"\u79c3":6261,"\u79c6":6262,"\u79c9":6263,"\u79cb":6264,"\u79cd":6265,"\u79d1":6266,"\u79d2":6267,"\u79d8":6268,"\u79df":6269,"\u79e3":6270,"\u79e4":6271,"\u79e6":6272,"\u79e7":6273,"\u79e9":6274,"\u79ed":6275,"\u79ef":6276,"\u79f0":6277,"\u79f8":6278,"\u79fb":6279,"\u79fd":6280,"\u7a00":6281,"\u7a03":6282,"\u7a05":6283,"\u7a08":6284,"\u7a0b":6285,"\u7a0d":6286,"\u7a0e":6287,"\u7a14":6288,"\u7a17":6289,"\u7a19":6290,"\u7a1a":6291,"\u7a1c":6292,"\u7a1f":6293,"\u7a20":6294,"\u7a23":6295,"\u7a2e":6296,"\u7a31":6297,"\u7a32":6298,"\u7a33":6299,"\u7a37":6300,"\u7a39":6301,"\u7a3b":6302,"\u7a3c":6303,"\u7a3d":6304,"\u7a3f":6305,"\u7a40":6306,"\u7a42":6307,"\u7a46":6308,"\u7a4c":6309,"\u7a4d":6310,"\u7a4e":6311,"\u7a4f":6312,"\u7a50":6313,"\u7a57":6314,"\u7a62":6315,"\u7a63":6316,"\u7a69":6317,"\u7a6b":6318,"\u7a70":6319,"\u7a74":6320,"\u7a76":6321,"\u7a77":6322,"\u7a79":6323,"\u7a7a":6324,"\u7a7f":6325,"\u7a81":6326,"\u7a83":6327,"\u7a84":6328,"\u7a88":6329,"\u7a8d":6330,"\u7a91":6331,"\u7a92":6332,"\u7a93":6333,"\u7a95":6334,"\u7a96":6335,"\u7a97":6336,"\u7a98":6337,"\u7a9c":6338,"\u7a9d":6339,"\u7a9f":6340,"\u7aa0":6341,"\u7aa3":6342,"\u7aa5":6343,"\u7aa6":6344,"\u7aa9":6345,"\u7aaa":6346,"\u7aae":6347,"\u7aaf":6348,"\u7aba":6349,"\u7abf":6350,"\u7ac4":6351,"\u7ac5":6352,"\u7ac7":6353,"\u7ac8":6354,"\u7aca":6355,"\u7acb":6356,"\u7ad1":6357,"\u7ad6":6358,"\u7ad9":6359,"\u7adc":6360,"\u7add":6361,"\u7ade":6362,"\u7adf":6363,"\u7ae0":6364,"\u7ae3":6365,"\u7ae5":6366,"\u7ae6":6367,"\u7aea":6368,"\u7aed":6369,"\u7aef":6370,"\u7af6":6371,"\u7af9":6372,"\u7afa":6373,"\u7aff":6374,"\u7b03":6375,"\u7b04":6376,"\u7b06":6377,"\u7b08":6378,"\u7b0b":6379,"\u7b0f":6380,"\u7b11":6381,"\u7b14":6382,"\u7b15":6383,"\u7b19":6384,"\u7b1b":6385,"\u7b1e":6386,"\u7b20":6387,"\u7b25":6388,"\u7b26":6389,"\u7b28":6390,"\u7b2a":6391,"\u7b2c":6392,"\u7b2e":6393,"\u7b33":6394,"\u7b39":6395,"\u7b3a":6396,"\u7b3c":6397,"\u7b45":6398,"\u7b46":6399,"\u7b48":6400,"\u7b49":6401,"\u7b4a":6402,"\u7b4b":6403,"\u7b4c":6404,"\u7b4d":6405,"\u7b4f":6406,"\u7b50":6407,"\u7b51":6408,"\u7b52":6409,"\u7b54":6410,"\u7b56":6411,"\u7b5b":6412,"\u7b5d":6413,"\u7b60":6414,"\u7b65":6415,"\u7b67":6416,"\u7b6e":6417,"\u7b70":6418,"\u7b71":6419,"\u7b72":6420,"\u7b75":6421,"\u7b77":6422,"\u7b79":6423,"\u7b7a":6424,"\u7b7e":6425,"\u7b80":6426,"\u7b87":6427,"\u7b8b":6428,"\u7b8d":6429,"\u7b8f":6430,"\u7b90":6431,"\u7b92":6432,"\u7b93":6433,"\u7b94":6434,"\u7b95":6435,"\u7b97":6436,"\u7b9a":6437,"\u7b9d":6438,"\u7ba1":6439,"\u7baa":6440,"\u7bab":6441,"\u7bac":6442,"\u7bad":6443,"\u7bb1":6444,"\u7bb4":6445,"\u7bb8":6446,"\u7bc0":6447,"\u7bc1":6448,"\u7bc4":6449,"\u7bc6":6450,"\u7bc7":6451,"\u7bc9":6452,"\u7bcb":6453,"\u7bd9":6454,"\u7bdd":6455,"\u7be0":6456,"\u7be1":6457,"\u7be4":6458,"\u7be6":6459,"\u7be9":6460,"\u7bea":6461,"\u7bed":6462,"\u7bee":6463,"\u7bf1":6464,"\u7bf7":6465,"\u7bfe":6466,"\u7c00":6467,"\u7c03":6468,"\u7c07":6469,"\u7c0b":6470,"\u7c11":6471,"\u7c12":6472,"\u7c15":6473,"\u7c17":6474,"\u7c21":6475,"\u7c27":6476,"\u7c2a":6477,"\u7c2b":6478,"\u7c37":6479,"\u7c38":6480,"\u7c3d":6481,"\u7c3e":6482,"\u7c3f":6483,"\u7c40":6484,"\u7c41":6485,"\u7c43":6486,"\u7c4c":6487,"\u7c4d":6488,"\u7c50":6489,"\u7c53":6490,"\u7c54":6491,"\u7c59":6492,"\u7c5f":6493,"\u7c60":6494,"\u7c64":6495,"\u7c6c":6496,"\u7c72":6497,"\u7c73":6498,"\u7c7b":6499,"\u7c7d":6500,"\u7c7e":6501,"\u7c81":6502,"\u7c82":6503,"\u7c84":6504,"\u7c89":6505,"\u7c8b":6506,"\u7c8d":6507,"\u7c91":6508,"\u7c92":6509,"\u7c95":6510,"\u7c97":6511,"\u7c98":6512,"\u7c9b":6513,"\u7c9f":6514,"\u7ca4":6515,"\u7ca5":6516,"\u7ca7":6517,"\u7caa":6518,"\u7cae":6519,"\u7cb1":6520,"\u7cb2":6521,"\u7cb3":6522,"\u7cb5":6523,"\u7cb9":6524,"\u7cbd":6525,"\u7cbe":6526,"\u7cbf":6527,"\u7cc0":6528,"\u7cc5":6529,"\u7cca":6530,"\u7ccd":6531,"\u7cce":6532,"\u7cd5":6533,"\u7cd6":6534,"\u7cd7":6535,"\u7cd9":6536,"\u7cdc":6537,"\u7cde":6538,"\u7cdf":6539,"\u7ce0":6540,"\u7ce7":6541,"\u7cec":6542,"\u7cef":6543,"\u7cf0":6544,"\u7cf8":6545,"\u7cf9":6546,"\u7cfa":6547,"\u7cfb":6548,"\u7cfe":6549,"\u7d00":6550,"\u7d02":6551,"\u7d04":6552,"\u7d05":6553,"\u7d06":6554,"\u7d07":6555,"\u7d09":6556,"\u7d0a":6557,"\u7d0b":6558,"\u7d0d":6559,"\u7d10":6560,"\u7d13":6561,"\u7d14":6562,"\u7d17":6563,"\u7d18":6564,"\u7d19":6565,"\u7d1a":6566,"\u7d1b":6567,"\u7d1c":6568,"\u7d20":6569,"\u7d21":6570,"\u7d22":6571,"\u7d27":6572,"\u7d2b":6573,"\u7d2c":6574,"\u7d2e":6575,"\u7d2f":6576,"\u7d30":6577,"\u7d33":6578,"\u7d39":6579,"\u7d3a":6580,"\u7d42":6581,"\u7d43":6582,"\u7d44":6583,"\u7d45":6584,"\u7d46":6585,"\u7d4c":6586,"\u7d50":6587,"\u7d55":6588,"\u7d5c":6589,"\u7d5e":6590,"\u7d61":6591,"\u7d62":6592,"\u7d63":6593,"\u7d66":6594,"\u7d68":6595,"\u7d6e":6596,"\u7d71":6597,"\u7d72":6598,"\u7d73":6599,"\u7d75":6600,"\u7d76":6601,"\u7d79":6602,"\u7d81":6603,"\u7d83":6604,"\u7d89":6605,"\u7d8f":6606,"\u7d91":6607,"\u7d93":6608,"\u7d99":6609,"\u7d9a":6610,"\u7d9c":6611,"\u7d9d":6612,"\u7da0":6613,"\u7da2":6614,"\u7da6":6615,"\u7dab":6616,"\u7dac":6617,"\u7dad":6618,"\u7db0":6619,"\u7db1":6620,"\u7db2":6621,"\u7db4":6622,"\u7db5":6623,"\u7db8":6624,"\u7dba":6625,"\u7dbb":6626,"\u7dbd":6627,"\u7dbe":6628,"\u7dbf":6629,"\u7dca":6630,"\u7dcb":6631,"\u7dcf":6632,"\u7dd1":6633,"\u7dd2":6634,"\u7dd6":6635,"\u7dd8":6636,"\u7dda":6637,"\u7ddd":6638,"\u7dde":6639,"\u7de0":6640,"\u7de1":6641,"\u7de3":6642,"\u7de8":6643,"\u7de9":6644,"\u7dec":6645,"\u7def":6646,"\u7df2":6647,"\u7df4":6648,"\u7df9":6649,"\u7dfb":6650,"\u7e01":6651,"\u7e04":6652,"\u7e08":6653,"\u7e09":6654,"\u7e0a":6655,"\u7e1b":6656,"\u7e1d":6657,"\u7e1e":6658,"\u7e23":6659,"\u7e26":6660,"\u7e2b":6661,"\u7e2e":6662,"\u7e2f":6663,"\u7e31":6664,"\u7e37":6665,"\u7e39":6666,"\u7e3b":6667,"\u7e3d":6668,"\u7e3e":6669,"\u7e41":6670,"\u7e43":6671,"\u7e46":6672,"\u7e47":6673,"\u7e4a":6674,"\u7e4b":6675,"\u7e4d":6676,"\u7e52":6677,"\u7e54":6678,"\u7e55":6679,"\u7e59":6680,"\u7e5a":6681,"\u7e5e":6682,"\u7e61":6683,"\u7e69":6684,"\u7e6a":6685,"\u7e6b":6686,"\u7e6d":6687,"\u7e70":6688,"\u7e73":6689,"\u7e79":6690,"\u7e7c":6691,"\u7e7d":6692,"\u7e82":6693,"\u7e88":6694,"\u7e8c":6695,"\u7e8d":6696,"\u7e8f":6697,"\u7e93":6698,"\u7e96":6699,"\u7e98":6700,"\u7e9b":6701,"\u7e9c":6702,"\u7ea0":6703,"\u7ea2":6704,"\u7ea3":6705,"\u7ea4":6706,"\u7ea5":6707,"\u7ea6":6708,"\u7ea7":6709,"\u7eaa":6710,"\u7eab":6711,"\u7eac":6712,"\u7ead":6713,"\u7eae":6714,"\u7eaf":6715,"\u7eb1":6716,"\u7eb2":6717,"\u7eb3":6718,"\u7eb5":6719,"\u7eb6":6720,"\u7eb7":6721,"\u7eb8":6722,"\u7eb9":6723,"\u7eba":6724,"\u7ebd":6725,"\u7ebe":6726,"\u7ebf":6727,"\u7ec0":6728,"\u7ec2":6729,"\u7ec3":6730,"\u7ec4":6731,"\u7ec5":6732,"\u7ec6":6733,"\u7ec7":6734,"\u7ec8":6735,"\u7eca":6736,"\u7ecd":6737,"\u7ece":6738,"\u7ecf":6739,"\u7ed1":6740,"\u7ed2":6741,"\u7ed3":6742,"\u7ed5":6743,"\u7ed8":6744,"\u7ed9":6745,"\u7eda":6746,"\u7edb":6747,"\u7edc":6748,"\u7edd":6749,"\u7ede":6750,"\u7edf":6751,"\u7ee1":6752,"\u7ee2":6753,"\u7ee3":6754,"\u7ee5":6755,"\u7ee7":6756,"\u7ee9":6757,"\u7eea":6758,"\u7eeb":6759,"\u7eed":6760,"\u7eee":6761,"\u7eef":6762,"\u7ef0":6763,"\u7ef3":6764,"\u7ef4":6765,"\u7ef5":6766,"\u7ef6":6767,"\u7ef7":6768,"\u7ef8":6769,"\u7efc":6770,"\u7efd":6771,"\u7efe":6772,"\u7eff":6773,"\u7f00":6774,"\u7f04":6775,"\u7f05":6776,"\u7f06":6777,"\u7f07":6778,"\u7f09":6779,"\u7f0e":6780,"\u7f13":6781,"\u7f14":6782,"\u7f15":6783,"\u7f16":6784,"\u7f18":6785,"\u7f19":6786,"\u7f1a":6787,"\u7f1c":6788,"\u7f1d":6789,"\u7f1f":6790,"\u7f20":6791,"\u7f22":6792,"\u7f24":6793,"\u7f28":6794,"\u7f29":6795,"\u7f2a":6796,"\u7f2c":6797,"\u7f2d":6798,"\u7f2e":6799,"\u7f2f":6800,"\u7f34":6801,"\u7f35":6802,"\u7f36":6803,"\u7f38":6804,"\u7f3a":6805,"\u7f3d":6806,"\u7f42":6807,"\u7f44":6808,"\u7f45":6809,"\u7f48":6810,"\u7f4c":6811,"\u7f50":6812,"\u7f51":6813,"\u7f54":6814,"\u7f55":6815,"\u7f57":6816,"\u7f58":6817,"\u7f5a":6818,"\u7f5f":6819,"\u7f60":6820,"\u7f61":6821,"\u7f62":6822,"\u7f69":6823,"\u7f6a":6824,"\u7f6e":6825,"\u7f70":6826,"\u7f72":6827,"\u7f75":6828,"\u7f77":6829,"\u7f79":6830,"\u7f7d":6831,"\u7f81":6832,"\u7f85":6833,"\u7f86":6834,"\u7f88":6835,"\u7f8a":6836,"\u7f8b":6837,"\u7f8c":6838,"\u7f8e":6839,"\u7f94":6840,"\u7f9a":6841,"\u7f9e":6842,"\u7f9f":6843,"\u7fa1":6844,"\u7fa3":6845,"\u7fa4":6846,"\u7fa5":6847,"\u7fa7":6848,"\u7fa8":6849,"\u7fa9":6850,"\u7faf":6851,"\u7fb0":6852,"\u7fb2":6853,"\u7fb8":6854,"\u7fb9":6855,"\u7fbd":6856,"\u7fbf":6857,"\u7fc0":6858,"\u7fc1":6859,"\u7fc5":6860,"\u7fca":6861,"\u7fcc":6862,"\u7fce":6863,"\u7fd2":6864,"\u7fd4":6865,"\u7fd5":6866,"\u7fd8":6867,"\u7fdf":6868,"\u7fe0":6869,"\u7fe1":6870,"\u7fe5":6871,"\u7fe6":6872,"\u7fe9":6873,"\u7feb":6874,"\u7fee":6875,"\u7ff0":6876,"\u7ff1":6877,"\u7ff3":6878,"\u7ff9":6879,"\u7ffb":6880,"\u7ffc":6881,"\u8000":6882,"\u8001":6883,"\u8003":6884,"\u8005":6885,"\u8006":6886,"\u800c":6887,"\u800d":6888,"\u8010":6889,"\u8012":6890,"\u8015":6891,"\u8017":6892,"\u8018":6893,"\u8019":6894,"\u801c":6895,"\u8026":6896,"\u8028":6897,"\u8033":6898,"\u8036":6899,"\u8038":6900,"\u803b":6901,"\u803d":6902,"\u803f":6903,"\u8042":6904,"\u8043":6905,"\u8046":6906,"\u804a":6907,"\u804b":6908,"\u804c":6909,"\u8054":6910,"\u8056":6911,"\u8058":6912,"\u805a":6913,"\u805e":6914,"\u8061":6915,"\u806a":6916,"\u806f":6917,"\u8070":6918,"\u8072":6919,"\u8073":6920,"\u8074":6921,"\u8076":6922,"\u8077":6923,"\u807d":6924,"\u807e":6925,"\u807f":6926,"\u8083":6927,"\u8084":6928,"\u8085":6929,"\u8086":6930,"\u8087":6931,"\u8089":6932,"\u808b":6933,"\u808c":6934,"\u8093":6935,"\u8096":6936,"\u8098":6937,"\u809a":6938,"\u809b":6939,"\u809c":6940,"\u809d":6941,"\u809f":6942,"\u80a0":6943,"\u80a1":6944,"\u80a2":6945,"\u80a4":6946,"\u80a5":6947,"\u80a9":6948,"\u80aa":6949,"\u80ae":6950,"\u80af":6951,"\u80b1":6952,"\u80b2":6953,"\u80b4":6954,"\u80ba":6955,"\u80bc":6956,"\u80bd":6957,"\u80be":6958,"\u80bf":6959,"\u80c0":6960,"\u80c1":6961,"\u80c3":6962,"\u80c4":6963,"\u80c6":6964,"\u80cc":6965,"\u80cd":6966,"\u80ce":6967,"\u80d6":6968,"\u80da":6969,"\u80db":6970,"\u80dc":6971,"\u80dd":6972,"\u80de":6973,"\u80e1":6974,"\u80e4":6975,"\u80e5":6976,"\u80e7":6977,"\u80ea":6978,"\u80eb":6979,"\u80ed":6980,"\u80ef":6981,"\u80f0":6982,"\u80f1":6983,"\u80f3":6984,"\u80f4":6985,"\u80f6":6986,"\u80f8":6987,"\u80fa":6988,"\u80fc":6989,"\u80fd":6990,"\u8102":6991,"\u8105":6992,"\u8106":6993,"\u8107":6994,"\u8108":6995,"\u8109":6996,"\u810a":6997,"\u810d":6998,"\u810f":6999,"\u8110":7000,"\u8111":7001,"\u8113":7002,"\u8116":7003,"\u811a":7004,"\u811b":7005,"\u8123":7006,"\u8129":7007,"\u812b":7008,"\u812f":7009,"\u8131":7010,"\u8132":7011,"\u8133":7012,"\u8137":7013,"\u8138":7014,"\u8139":7015,"\u813e":7016,"\u8146":7017,"\u8148":7018,"\u814a":7019,"\u814b":7020,"\u814c":7021,"\u814e":7022,"\u8150":7023,"\u8151":7024,"\u8153":7025,"\u8154":7026,"\u8155":7027,"\u8165":7028,"\u8166":7029,"\u8169":7030,"\u816b":7031,"\u816d":7032,"\u816e":7033,"\u8170":7034,"\u8171":7035,"\u8173":7036,"\u8174":7037,"\u8178":7038,"\u8179":7039,"\u817a":7040,"\u817b":7041,"\u817e":7042,"\u817f":7043,"\u8180":7044,"\u8182":7045,"\u8188":7046,"\u818a":7047,"\u818f":7048,"\u8191":7049,"\u819a":7050,"\u819b":7051,"\u819c":7052,"\u819d":7053,"\u81a0":7054,"\u81a3":7055,"\u81a6":7056,"\u81a8":7057,"\u81a9":7058,"\u81b3":7059,"\u81b5":7060,"\u81ba":7061,"\u81bd":7062,"\u81be":7063,"\u81bf":7064,"\u81c0":7065,"\u81c2":7066,"\u81c6":7067,"\u81c8":7068,"\u81c9":7069,"\u81cd":7070,"\u81cf":7071,"\u81d3":7072,"\u81d8":7073,"\u81da":7074,"\u81df":7075,"\u81e3":7076,"\u81e5":7077,"\u81e7":7078,"\u81e8":7079,"\u81ea":7080,"\u81ec":7081,"\u81ed":7082,"\u81f3":7083,"\u81f4":7084,"\u81fa":7085,"\u81fb":7086,"\u81fc":7087,"\u81fe":7088,"\u8201":7089,"\u8202":7090,"\u8205":7091,"\u8206":7092,"\u8207":7093,"\u8208":7094,"\u8209":7095,"\u820a":7096,"\u820c":7097,"\u820d":7098,"\u820e":7099,"\u8210":7100,"\u8212":7101,"\u8214":7102,"\u8216":7103,"\u8217":7104,"\u8218":7105,"\u821b":7106,"\u821c":7107,"\u821e":7108,"\u821f":7109,"\u8222":7110,"\u8229":7111,"\u822a":7112,"\u822b":7113,"\u822c":7114,"\u822f":7115,"\u8230":7116,"\u8231":7117,"\u8233":7118,"\u8235":7119,"\u8236":7120,"\u8237":7121,"\u8238":7122,"\u8239":7123,"\u823a":7124,"\u823e":7125,"\u8240":7126,"\u8247":7127,"\u8249":7128,"\u824b":7129,"\u824f":7130,"\u8258":7131,"\u8259":7132,"\u825b":7133,"\u8264":7134,"\u8266":7135,"\u826e":7136,"\u826f":7137,"\u8270":7138,"\u8271":7139,"\u8272":7140,"\u8273":7141,"\u8276":7142,"\u8277":7143,"\u8278":7144,"\u8279":7145,"\u827a":7146,"\u827e":7147,"\u8282":7148,"\u8283":7149,"\u8288":7150,"\u828a":7151,"\u828b":7152,"\u828d":7153,"\u828e":7154,"\u8292":7155,"\u8297":7156,"\u8299":7157,"\u829c":7158,"\u829d":7159,"\u82a1":7160,"\u82a5":7161,"\u82a6":7162,"\u82a8":7163,"\u82a9":7164,"\u82aa":7165,"\u82ab":7166,"\u82ac":7167,"\u82ad":7168,"\u82ae":7169,"\u82af":7170,"\u82b1":7171,"\u82b3":7172,"\u82b7":7173,"\u82b8":7174,"\u82b9":7175,"\u82bb":7176,"\u82bd":7177,"\u82be":7178,"\u82c4":7179,"\u82c5":7180,"\u82c7":7181,"\u82cb":7182,"\u82cc":7183,"\u82cd":7184,"\u82ce":7185,"\u82cf":7186,"\u82d1":7187,"\u82d3":7188,"\u82d4":7189,"\u82d5":7190,"\u82d7":7191,"\u82db":7192,"\u82dc":7193,"\u82de":7194,"\u82df":7195,"\u82e1":7196,"\u82e3":7197,"\u82e5":7198,"\u82e6":7199,"\u82e7":7200,"\u82eb":7201,"\u82ef":7202,"\u82f1":7203,"\u82f3":7204,"\u82f4":7205,"\u82f7":7206,"\u82f9":7207,"\u82fa":7208,"\u82fb":7209,"\u82fe":7210,"\u8301":7211,"\u8302":7212,"\u8303":7213,"\u8304":7214,"\u8305":7215,"\u8309":7216,"\u830c":7217,"\u830e":7218,"\u8314":7219,"\u8317":7220,"\u831b":7221,"\u831c":7222,"\u8327":7223,"\u8328":7224,"\u832b":7225,"\u832f":7226,"\u8331":7227,"\u8332":7228,"\u8334":7229,"\u8335":7230,"\u8336":7231,"\u8338":7232,"\u8339":7233,"\u8340":7234,"\u8343":7235,"\u8346":7236,"\u8349":7237,"\u834a":7238,"\u834f":7239,"\u8350":7240,"\u8352":7241,"\u8354":7242,"\u8356":7243,"\u8358":7244,"\u835a":7245,"\u835e":7246,"\u835f":7247,"\u8360":7248,"\u8361":7249,"\u8363":7250,"\u8364":7251,"\u8365":7252,"\u8367":7253,"\u8368":7254,"\u8369":7255,"\u836a":7256,"\u836b":7257,"\u836f":7258,"\u8373":7259,"\u8377":7260,"\u8378":7261,"\u837b":7262,"\u837c":7263,"\u837d":7264,"\u8385":7265,"\u8386":7266,"\u8389":7267,"\u838a":7268,"\u838e":7269,"\u8392":7270,"\u8393":7271,"\u8396":7272,"\u8398":7273,"\u839e":7274,"\u83a0":7275,"\u83a2":7276,"\u83a7":7277,"\u83a8":7278,"\u83aa":7279,"\u83ab":7280,"\u83b1":7281,"\u83b2":7282,"\u83b3":7283,"\u83b4":7284,"\u83b7":7285,"\u83b9":7286,"\u83ba":7287,"\u83bd":7288,"\u83bf":7289,"\u83c0":7290,"\u83c1":7291,"\u83c5":7292,"\u83c7":7293,"\u83c8":7294,"\u83ca":7295,"\u83cc":7296,"\u83cf":7297,"\u83d3":7298,"\u83d6":7299,"\u83d8":7300,"\u83dc":7301,"\u83dd":7302,"\u83df":7303,"\u83e0":7304,"\u83e1":7305,"\u83e9":7306,"\u83eb":7307,"\u83ef":7308,"\u83f0":7309,"\u83f1":7310,"\u83f2":7311,"\u83f4":7312,"\u83f8":7313,"\u83fd":7314,"\u8401":7315,"\u8403":7316,"\u8404":7317,"\u8407":7318,"\u840a":7319,"\u840c":7320,"\u840d":7321,"\u840e":7322,"\u8418":7323,"\u841c":7324,"\u841d":7325,"\u8420":7326,"\u8423":7327,"\u8424":7328,"\u8425":7329,"\u8426":7330,"\u8427":7331,"\u8428":7332,"\u8429":7333,"\u842c":7334,"\u8431":7335,"\u8435":7336,"\u8438":7337,"\u843c":7338,"\u843d":7339,"\u8446":7340,"\u8449":7341,"\u844e":7342,"\u8457":7343,"\u845b":7344,"\u845c":7345,"\u8461":7346,"\u8463":7347,"\u8466":7348,"\u8469":7349,"\u846b":7350,"\u846c":7351,"\u846d":7352,"\u846f":7353,"\u8471":7354,"\u8473":7355,"\u8475":7356,"\u8476":7357,"\u8477":7358,"\u847a":7359,"\u8482":7360,"\u848b":7361,"\u8490":7362,"\u8494":7363,"\u8499":7364,"\u849c":7365,"\u849e":7366,"\u849f":7367,"\u84a1":7368,"\u84a8":7369,"\u84af":7370,"\u84b2":7371,"\u84b4":7372,"\u84b8":7373,"\u84ba":7374,"\u84bb":7375,"\u84bc":7376,"\u84bd":7377,"\u84be":7378,"\u84bf":7379,"\u84c0":7380,"\u84c1":7381,"\u84c4":7382,"\u84c6":7383,"\u84c9":7384,"\u84cb":7385,"\u84cd":7386,"\u84d1":7387,"\u84d3":7388,"\u84d6":7389,"\u84dd":7390,"\u84df":7391,"\u84e3":7392,"\u84ec":7393,"\u84ee":7394,"\u84fc":7395,"\u84ff":7396,"\u8500":7397,"\u8511":7398,"\u8513":7399,"\u8514":7400,"\u8517":7401,"\u8518":7402,"\u851a":7403,"\u8521":7404,"\u8523":7405,"\u8525":7406,"\u8526":7407,"\u852c":7408,"\u852d":7409,"\u8534":7410,"\u8535":7411,"\u8537":7412,"\u853a":7413,"\u853b":7414,"\u853c":7415,"\u853d":7416,"\u8541":7417,"\u8543":7418,"\u8548":7419,"\u8549":7420,"\u854a":7421,"\u854e":7422,"\u8557":7423,"\u8559":7424,"\u8564":7425,"\u8568":7426,"\u8569":7427,"\u856a":7428,"\u856d":7429,"\u8572":7430,"\u8574":7431,"\u8577":7432,"\u857e":7433,"\u8580":7434,"\u8584":7435,"\u8587":7436,"\u8588":7437,"\u858a":7438,"\u858c":7439,"\u858f":7440,"\u8591":7441,"\u8594":7442,"\u8597":7443,"\u8599":7444,"\u859b":7445,"\u859c":7446,"\u85a6":7447,"\u85a8":7448,"\u85a9":7449,"\u85aa":7450,"\u85ab":7451,"\u85ac":7452,"\u85ae":7453,"\u85af":7454,"\u85b0":7455,"\u85b7":7456,"\u85b9":7457,"\u85ba":7458,"\u85c1":7459,"\u85c9":7460,"\u85cd":7461,"\u85ce":7462,"\u85cf":7463,"\u85d0":7464,"\u85d3":7465,"\u85d4":7466,"\u85d5":7467,"\u85dc":7468,"\u85dd":7469,"\u85e4":7470,"\u85e5":7471,"\u85e8":7472,"\u85e9":7473,"\u85ea":7474,"\u85f7":7475,"\u85f9":7476,"\u85fa":7477,"\u85fb":7478,"\u85ff":7479,"\u8602":7480,"\u8604":7481,"\u8605":7482,"\u8606":7483,"\u8607":7484,"\u860a":7485,"\u860b":7486,"\u8611":7487,"\u861a":7488,"\u862d":7489,"\u8638":7490,"\u863f":7491,"\u864e":7492,"\u864f":7493,"\u8650":7494,"\u8651":7495,"\u8653":7496,"\u8654":7497,"\u8655":7498,"\u865a":7499,"\u865b":7500,"\u865c":7501,"\u865e":7502,"\u865f":7503,"\u8662":7504,"\u8667":7505,"\u866b":7506,"\u866c":7507,"\u866f":7508,"\u8671":7509,"\u8679":7510,"\u867b":7511,"\u867d":7512,"\u867e":7513,"\u8680":7514,"\u8681":7515,"\u8682":7516,"\u868a":7517,"\u868b":7518,"\u868c":7519,"\u8693":7520,"\u8695":7521,"\u869c":7522,"\u869d":7523,"\u86a3":7524,"\u86a4":7525,"\u86a9":7526,"\u86aa":7527,"\u86ac":7528,"\u86af":7529,"\u86b1":7530,"\u86b5":7531,"\u86b6":7532,"\u86ba":7533,"\u86c0":7534,"\u86c4":7535,"\u86c6":7536,"\u86c7":7537,"\u86c9":7538,"\u86ca":7539,"\u86cb":7540,"\u86cd":7541,"\u86ce":7542,"\u86cf":7543,"\u86d4":7544,"\u86d9":7545,"\u86db":7546,"\u86de":7547,"\u86df":7548,"\u86e4":7549,"\u86ed":7550,"\u86ee":7551,"\u86ef":7552,"\u86f0":7553,"\u86f1":7554,"\u86f3":7555,"\u86f8":7556,"\u86f9":7557,"\u86fa":7558,"\u86fb":7559,"\u86fe":7560,"\u8700":7561,"\u8702":7562,"\u8703":7563,"\u8706":7564,"\u8708":7565,"\u8709":7566,"\u870a":7567,"\u870d":7568,"\u8711":7569,"\u8712":7570,"\u8713":7571,"\u8715":7572,"\u8717":7573,"\u8718":7574,"\u871a":7575,"\u871c":7576,"\u8721":7577,"\u8722":7578,"\u8725":7579,"\u8731":7580,"\u8734":7581,"\u8737":7582,"\u873b":7583,"\u873f":7584,"\u8747":7585,"\u8749":7586,"\u874b":7587,"\u874c":7588,"\u874e":7589,"\u8753":7590,"\u8755":7591,"\u8757":7592,"\u8759":7593,"\u875f":7594,"\u8760":7595,"\u8763":7596,"\u8766":7597,"\u8768":7598,"\u876e":7599,"\u8770":7600,"\u8774":7601,"\u8776":7602,"\u8778":7603,"\u877d":7604,"\u877e":7605,"\u877f":7606,"\u8782":7607,"\u8783":7608,"\u8784":7609,"\u8788":7610,"\u878d":7611,"\u879e":7612,"\u879f":7613,"\u87a2":7614,"\u87a8":7615,"\u87ab":7616,"\u87ad":7617,"\u87af":7618,"\u87b3":7619,"\u87ba":7620,"\u87bd":7621,"\u87c0":7622,"\u87c4":7623,"\u87c6":7624,"\u87c7":7625,"\u87cb":7626,"\u87ce":7627,"\u87d1":7628,"\u87d2":7629,"\u87dc":7630,"\u87e0":7631,"\u87ec":7632,"\u87f2":7633,"\u87f7":7634,"\u87f9":7635,"\u87fb":7636,"\u87fe":7637,"\u8805":7638,"\u880a":7639,"\u880d":7640,"\u8811":7641,"\u8814":7642,"\u8815":7643,"\u881f":7644,"\u8821":7645,"\u8822":7646,"\u8823":7647,"\u8831":7648,"\u8832":7649,"\u8835":7650,"\u8836":7651,"\u8839":7652,"\u883b":7653,"\u8840":7654,"\u8845":7655,"\u8846":7656,"\u884a":7657,"\u884c":7658,"\u884d":7659,"\u8852":7660,"\u8853":7661,"\u8854":7662,"\u8855":7663,"\u8857":7664,"\u8859":7665,"\u885a":7666,"\u885b":7667,"\u885d":7668,"\u885e":7669,"\u8861":7670,"\u8862":7671,"\u8863":7672,"\u8865":7673,"\u8868":7674,"\u886b":7675,"\u886c":7676,"\u886e":7677,"\u8870":7678,"\u8877":7679,"\u8879":7680,"\u887d":7681,"\u887e":7682,"\u887f":7683,"\u8881":7684,"\u8882":7685,"\u8884":7686,"\u8888":7687,"\u888b":7688,"\u888d":7689,"\u8892":7690,"\u8896":7691,"\u889b":7692,"\u889c":7693,"\u889e":7694,"\u88a2":7695,"\u88a4":7696,"\u88ab":7697,"\u88ad":7698,"\u88b1":7699,"\u88b4":7700,"\u88c1":7701,"\u88c2":7702,"\u88c5":7703,"\u88cf":7704,"\u88d2":7705,"\u88d4":7706,"\u88d5":7707,"\u88d8":7708,"\u88d9":7709,"\u88dc":7710,"\u88dd":7711,"\u88df":7712,"\u88e1":7713,"\u88e4":7714,"\u88e8":7715,"\u88f1":7716,"\u88f3":7717,"\u88f4":7718,"\u88f5":7719,"\u88f8":7720,"\u88f9":7721,"\u88fd":7722,"\u88fe":7723,"\u8902":7724,"\u8907":7725,"\u890c":7726,"\u8910":7727,"\u8912":7728,"\u8913":7729,"\u8914":7730,"\u891a":7731,"\u8925":7732,"\u892a":7733,"\u892b":7734,"\u8932":7735,"\u8936":7736,"\u893b":7737,"\u8941":7738,"\u8944":7739,"\u8956":7740,"\u895e":7741,"\u895f":7742,"\u8966":7743,"\u896a":7744,"\u896f":7745,"\u8972":7746,"\u8977":7747,"\u897f":7748,"\u8981":7749,"\u8983":7750,"\u8986":7751,"\u8987":7752,"\u898b":7753,"\u898f":7754,"\u8993":7755,"\u8996":7756,"\u8997":7757,"\u899a":7758,"\u89a6":7759,"\u89a7":7760,"\u89aa":7761,"\u89ac":7762,"\u89b2":7763,"\u89b3":7764,"\u89ba":7765,"\u89bd":7766,"\u89c0":7767,"\u89c1":7768,"\u89c2":7769,"\u89c4":7770,"\u89c5":7771,"\u89c6":7772,"\u89c8":7773,"\u89c9":7774,"\u89ca":7775,"\u89ce":7776,"\u89d0":7777,"\u89d2":7778,"\u89da":7779,"\u89de":7780,"\u89e3":7781,"\u89e6":7782,"\u89f4":7783,"\u89f8":7784,"\u8a00":7785,"\u8a01":7786,"\u8a02":7787,"\u8a03":7788,"\u8a07":7789,"\u8a08":7790,"\u8a0a":7791,"\u8a0c":7792,"\u8a0e":7793,"\u8a13":7794,"\u8a15":7795,"\u8a16":7796,"\u8a17":7797,"\u8a18":7798,"\u8a1b":7799,"\u8a1d":7800,"\u8a1f":7801,"\u8a22":7802,"\u8a23":7803,"\u8a25":7804,"\u8a2a":7805,"\u8a2d":7806,"\u8a31":7807,"\u8a33":7808,"\u8a34":7809,"\u8a36":7810,"\u8a3a":7811,"\u8a3b":7812,"\u8a3c":7813,"\u8a3e":7814,"\u8a41":7815,"\u8a46":7816,"\u8a48":7817,"\u8a50":7818,"\u8a52":7819,"\u8a54":7820,"\u8a55":7821,"\u8a5b":7822,"\u8a5e":7823,"\u8a60":7824,"\u8a61":7825,"\u8a62":7826,"\u8a63":7827,"\u8a66":7828,"\u8a67":7829,"\u8a69":7830,"\u8a6b":7831,"\u8a6c":7832,"\u8a6d":7833,"\u8a6e":7834,"\u8a70":7835,"\u8a71":7836,"\u8a72":7837,"\u8a73":7838,"\u8a75":7839,"\u8a79":7840,"\u8a7c":7841,"\u8a85":7842,"\u8a87":7843,"\u8a89":7844,"\u8a8a":7845,"\u8a8c":7846,"\u8a8d":7847,"\u8a91":7848,"\u8a93":7849,"\u8a95":7850,"\u8a98":7851,"\u8a9e":7852,"\u8aa0":7853,"\u8aa1":7854,"\u8aa3":7855,"\u8aa4":7856,"\u8aa5":7857,"\u8aa6":7858,"\u8aa8":7859,"\u8aaa":7860,"\u8aac":7861,"\u8aad":7862,"\u8ab0":7863,"\u8ab2":7864,"\u8ab9":7865,"\u8abc":7866,"\u8abe":7867,"\u8abf":7868,"\u8ac2":7869,"\u8ac4":7870,"\u8ac7":7871,"\u8acb":7872,"\u8acc":7873,"\u8acd":7874,"\u8acf":7875,"\u8ad2":7876,"\u8ad6":7877,"\u8adb":7878,"\u8adc":7879,"\u8ae1":7880,"\u8ae4":7881,"\u8ae6":7882,"\u8ae7":7883,"\u8aeb":7884,"\u8aed":7885,"\u8aee":7886,"\u8af1":7887,"\u8af2":7888,"\u8af3":7889,"\u8af4":7890,"\u8af6":7891,"\u8af7":7892,"\u8af8":7893,"\u8afa":7894,"\u8afe":7895,"\u8b00":7896,"\u8b01":7897,"\u8b02":7898,"\u8b04":7899,"\u8b07":7900,"\u8b0a":7901,"\u8b0e":7902,"\u8b10":7903,"\u8b14":7904,"\u8b16":7905,"\u8b17":7906,"\u8b19":7907,"\u8b1a":7908,"\u8b1b":7909,"\u8b1d":7910,"\u8b20":7911,"\u8b21":7912,"\u8b28":7913,"\u8b2b":7914,"\u8b2c":7915,"\u8b33":7916,"\u8b39":7917,"\u8b3e":7918,"\u8b41":7919,"\u8b49":7920,"\u8b4f":7921,"\u8b58":7922,"\u8b59":7923,"\u8b5a":7924,"\u8b5c":7925,"\u8b66":7926,"\u8b6c":7927,"\u8b6f":7928,"\u8b70":7929,"\u8b72":7930,"\u8b74":7931,"\u8b77":7932,"\u8b7d":7933,"\u8b80":7934,"\u8b83":7935,"\u8b8a":7936,"\u8b8e":7937,"\u8b90":7938,"\u8b92":7939,"\u8b93":7940,"\u8b96":7941,"\u8b9a":7942,"\u8b9e":7943,"\u8ba1":7944,"\u8ba2":7945,"\u8ba3":7946,"\u8ba4":7947,"\u8ba5":7948,"\u8ba6":7949,"\u8ba7":7950,"\u8ba8":7951,"\u8ba9":7952,"\u8baa":7953,"\u8bab":7954,"\u8bad":7955,"\u8bae":7956,"\u8baf":7957,"\u8bb0":7958,"\u8bb2":7959,"\u8bb3":7960,"\u8bb4":7961,"\u8bb6":7962,"\u8bb7":7963,"\u8bb8":7964,"\u8bb9":7965,"\u8bba":7966,"\u8bbc":7967,"\u8bbd":7968,"\u8bbe":7969,"\u8bbf":7970,"\u8bc0":7971,"\u8bc1":7972,"\u8bc2":7973,"\u8bc3":7974,"\u8bc4":7975,"\u8bc5":7976,"\u8bc6":7977,"\u8bc8":7978,"\u8bc9":7979,"\u8bca":7980,"\u8bcb":7981,"\u8bcd":7982,"\u8bcf":7983,"\u8bd1":7984,"\u8bd2":7985,"\u8bd5":7986,"\u8bd7":7987,"\u8bd8":7988,"\u8bd9":7989,"\u8bda":7990,"\u8bdb":7991,"\u8bdc":7992,"\u8bdd":7993,"\u8bde":7994,"\u8bdf":7995,"\u8be0":7996,"\u8be1":7997,"\u8be2":7998,"\u8be3":7999,"\u8be4":8000,"\u8be5":8001,"\u8be6":8002,"\u8be7":8003,"\u8be9":8004,"\u8beb":8005,"\u8bec":8006,"\u8bed":8007,"\u8bef":8008,"\u8bf0":8009,"\u8bf1":8010,"\u8bf2":8011,"\u8bf4":8012,"\u8bf5":8013,"\u8bf7":8014,"\u8bf8":8015,"\u8bf9":8016,"\u8bfa":8017,"\u8bfb":8018,"\u8bfd":8019,"\u8bfe":8020,"\u8c00":8021,"\u8c01":8022,"\u8c03":8023,"\u8c04":8024,"\u8c05":8025,"\u8c08":8026,"\u8c0a":8027,"\u8c0b":8028,"\u8c0c":8029,"\u8c0d":8030,"\u8c0e":8031,"\u8c0f":8032,"\u8c10":8033,"\u8c11":8034,"\u8c12":8035,"\u8c13":8036,"\u8c14":8037,"\u8c15":8038,"\u8c17":8039,"\u8c18":8040,"\u8c19":8041,"\u8c1a":8042,"\u8c1b":8043,"\u8c1c":8044,"\u8c1f":8045,"\u8c22":8046,"\u8c23":8047,"\u8c24":8048,"\u8c25":8049,"\u8c26":8050,"\u8c27":8051,"\u8c28":8052,"\u8c29":8053,"\u8c2a":8054,"\u8c2c":8055,"\u8c2d":8056,"\u8c2f":8057,"\u8c31":8058,"\u8c33":8059,"\u8c34":8060,"\u8c36":8061,"\u8c37":8062,"\u8c3f":8063,"\u8c41":8064,"\u8c46":8065,"\u8c48":8066,"\u8c49":8067,"\u8c4a":8068,"\u8c4c":8069,"\u8c4e":8070,"\u8c50":8071,"\u8c54":8072,"\u8c55":8073,"\u8c5a":8074,"\u8c61":8075,"\u8c62":8076,"\u8c68":8077,"\u8c6a":8078,"\u8c6b":8079,"\u8c6c":8080,"\u8c73":8081,"\u8c78":8082,"\u8c79":8083,"\u8c7a":8084,"\u8c82":8085,"\u8c89":8086,"\u8c8a":8087,"\u8c8c":8088,"\u8c93":8089,"\u8c98":8090,"\u8c9d":8091,"\u8c9e":8092,"\u8ca0":8093,"\u8ca1":8094,"\u8ca2":8095,"\u8ca7":8096,"\u8ca8":8097,"\u8ca9":8098,"\u8caa":8099,"\u8cab":8100,"\u8cac":8101,"\u8caf":8102,"\u8cb0":8103,"\u8cb3":8104,"\u8cb4":8105,"\u8cb6":8106,"\u8cb7":8107,"\u8cb8":8108,"\u8cbb":8109,"\u8cbc":8110,"\u8cbd":8111,"\u8cbf":8112,"\u8cc0":8113,"\u8cc1":8114,"\u8cc2":8115,"\u8cc3":8116,"\u8cc4":8117,"\u8cc7":8118,"\u8cc8":8119,"\u8cca":8120,"\u8cce":8121,"\u8cd1":8122,"\u8cd3":8123,"\u8cda":8124,"\u8cdb":8125,"\u8cdc":8126,"\u8cde":8127,"\u8ce0":8128,"\u8ce1":8129,"\u8ce2":8130,"\u8ce3":8131,"\u8ce4":8132,"\u8ce6":8133,"\u8cea":8134,"\u8cec":8135,"\u8ced":8136,"\u8cf4":8137,"\u8cfa":8138,"\u8cfc":8139,"\u8cfd":8140,"\u8cfe":8141,"\u8d04":8142,"\u8d05":8143,"\u8d07":8144,"\u8d08":8145,"\u8d0a":8146,"\u8d0b":8147,"\u8d0d":8148,"\u8d0f":8149,"\u8d13":8150,"\u8d14":8151,"\u8d16":8152,"\u8d1b":8153,"\u8d1d":8154,"\u8d1e":8155,"\u8d1f":8156,"\u8d21":8157,"\u8d22":8158,"\u8d23":8159,"\u8d24":8160,"\u8d25":8161,"\u8d26":8162,"\u8d27":8163,"\u8d28":8164,"\u8d29":8165,"\u8d2a":8166,"\u8d2b":8167,"\u8d2c":8168,"\u8d2d":8169,"\u8d2e":8170,"\u8d2f":8171,"\u8d30":8172,"\u8d31":8173,"\u8d32":8174,"\u8d34":8175,"\u8d35":8176,"\u8d37":8177,"\u8d38":8178,"\u8d39":8179,"\u8d3a":8180,"\u8d3b":8181,"\u8d3c":8182,"\u8d3d":8183,"\u8d3e":8184,"\u8d3f":8185,"\u8d40":8186,"\u8d41":8187,"\u8d42":8188,"\u8d43":8189,"\u8d44":8190,"\u8d48":8191,"\u8d49":8192,"\u8d4b":8193,"\u8d4c":8194,"\u8d4d":8195,"\u8d4e":8196,"\u8d4f":8197,"\u8d50":8198,"\u8d53":8199,"\u8d54":8200,"\u8d56":8201,"\u8d58":8202,"\u8d5a":8203,"\u8d5b":8204,"\u8d5d":8205,"\u8d5e":8206,"\u8d5f":8207,"\u8d60":8208,"\u8d61":8209,"\u8d62":8210,"\u8d63":8211,"\u8d64":8212,"\u8d66":8213,"\u8d67":8214,"\u8d6b":8215,"\u8d6d":8216,"\u8d70":8217,"\u8d73":8218,"\u8d74":8219,"\u8d75":8220,"\u8d76":8221,"\u8d77":8222,"\u8d81":8223,"\u8d85":8224,"\u8d8a":8225,"\u8d8b":8226,"\u8d95":8227,"\u8d99":8228,"\u8d9f":8229,"\u8da3":8230,"\u8da8":8231,"\u8db3":8232,"\u8db4":8233,"\u8db8":8234,"\u8dba":8235,"\u8dbe":8236,"\u8dc3":8237,"\u8dc6":8238,"\u8dcb":8239,"\u8dcc":8240,"\u8dcf":8241,"\u8dd1":8242,"\u8dd6":8243,"\u8dd7":8244,"\u8ddb":8245,"\u8ddd":8246,"\u8ddf":8247,"\u8de1":8248,"\u8de4":8249,"\u8de8":8250,"\u8dea":8251,"\u8def":8252,"\u8df3":8253,"\u8df5":8254,"\u8df7":8255,"\u8df8":8256,"\u8dfb":8257,"\u8e0a":8258,"\u8e0f":8259,"\u8e10":8260,"\u8e1d":8261,"\u8e1e":8262,"\u8e22":8263,"\u8e29":8264,"\u8e2a":8265,"\u8e30":8266,"\u8e34":8267,"\u8e35":8268,"\u8e39":8269,"\u8e42":8270,"\u8e44":8271,"\u8e47":8272,"\u8e48":8273,"\u8e49":8274,"\u8e4a":8275,"\u8e4b":8276,"\u8e55":8277,"\u8e59":8278,"\u8e5f":8279,"\u8e60":8280,"\u8e64":8281,"\u8e66":8282,"\u8e6c":8283,"\u8e72":8284,"\u8e74":8285,"\u8e76":8286,"\u8e7a":8287,"\u8e7c":8288,"\u8e81":8289,"\u8e84":8290,"\u8e85":8291,"\u8e87":8292,"\u8e89":8293,"\u8e8a":8294,"\u8e8b":8295,"\u8e8d":8296,"\u8e8f":8297,"\u8e91":8298,"\u8e93":8299,"\u8e99":8300,"\u8eaa":8301,"\u8eab":8302,"\u8eac":8303,"\u8eaf":8304,"\u8eb0":8305,"\u8eb2":8306,"\u8eba":8307,"\u8ebe":8308,"\u8ec0":8309,"\u8eca":8310,"\u8ecb":8311,"\u8ecc":8312,"\u8ecd":8313,"\u8ed2":8314,"\u8ed4":8315,"\u8edb":8316,"\u8edf":8317,"\u8ee2":8318,"\u8eeb":8319,"\u8ef8":8320,"\u8efb":8321,"\u8efc":8322,"\u8efd":8323,"\u8efe":8324,"\u8f03":8325,"\u8f05":8326,"\u8f09":8327,"\u8f0b":8328,"\u8f0c":8329,"\u8f12":8330,"\u8f13":8331,"\u8f14":8332,"\u8f15":8333,"\u8f1b":8334,"\u8f1c":8335,"\u8f1d":8336,"\u8f1f":8337,"\u8f25":8338,"\u8f26":8339,"\u8f29":8340,"\u8f2a":8341,"\u8f2f":8342,"\u8f33":8343,"\u8f38":8344,"\u8f3b":8345,"\u8f3e":8346,"\u8f3f":8347,"\u8f42":8348,"\u8f44":8349,"\u8f45":8350,"\u8f46":8351,"\u8f49":8352,"\u8f4d":8353,"\u8f4e":8354,"\u8f5f":8355,"\u8f61":8356,"\u8f62":8357,"\u8f64":8358,"\u8f66":8359,"\u8f67":8360,"\u8f68":8361,"\u8f69":8362,"\u8f6b":8363,"\u8f6c":8364,"\u8f6d":8365,"\u8f6e":8366,"\u8f6f":8367,"\u8f70":8368,"\u8f72":8369,"\u8f74":8370,"\u8f76":8371,"\u8f78":8372,"\u8f7b":8373,"\u8f7c":8374,"\u8f7d":8375,"\u8f7f":8376,"\u8f82":8377,"\u8f83":8378,"\u8f84":8379,"\u8f85":8380,"\u8f86":8381,"\u8f87":8382,"\u8f88":8383,"\u8f89":8384,"\u8f8a":8385,"\u8f8d":8386,"\u8f8e":8387,"\u8f90":8388,"\u8f91":8389,"\u8f93":8390,"\u8f95":8391,"\u8f96":8392,"\u8f97":8393,"\u8f98":8394,"\u8f99":8395,"\u8f9b":8396,"\u8f9c":8397,"\u8f9e":8398,"\u8f9f":8399,"\u8fa3":8400,"\u8fa6":8401,"\u8fa8":8402,"\u8fa9":8403,"\u8fab":8404,"\u8fad":8405,"\u8fae":8406,"\u8faf":8407,"\u8fb0":8408,"\u8fb1":8409,"\u8fb2":8410,"\u8fb6":8411,"\u8fb9":8412,"\u8fba":8413,"\u8fbb":8414,"\u8fbc":8415,"\u8fbd":8416,"\u8fbe":8417,"\u8fbf":8418,"\u8fc1":8419,"\u8fc2":8420,"\u8fc4":8421,"\u8fc5":8422,"\u8fc7":8423,"\u8fc8":8424,"\u8fce":8425,"\u8fd0":8426,"\u8fd1":8427,"\u8fd4":8428,"\u8fd8":8429,"\u8fd9":8430,"\u8fdb":8431,"\u8fdc":8432,"\u8fdd":8433,"\u8fde":8434,"\u8fdf":8435,"\u8fe2":8436,"\u8fe4":8437,"\u8fe5":8438,"\u8fe6":8439,"\u8fe8":8440,"\u8fe9":8441,"\u8fea":8442,"\u8feb":8443,"\u8fed":8444,"\u8ff0":8445,"\u8ff3":8446,"\u8ff4":8447,"\u8ff7":8448,"\u8ff8":8449,"\u8ff9":8450,"\u8ffa":8451,"\u8ffd":8452,"\u9000":8453,"\u9001":8454,"\u9002":8455,"\u9003":8456,"\u9004":8457,"\u9005":8458,"\u9006":8459,"\u9009":8460,"\u900a":8461,"\u900b":8462,"\u900d":8463,"\u900f":8464,"\u9010":8465,"\u9011":8466,"\u9012":8467,"\u9013":8468,"\u9014":8469,"\u9015":8470,"\u9016":8471,"\u9017":8472,"\u9019":8473,"\u901a":8474,"\u901b":8475,"\u901d":8476,"\u901e":8477,"\u901f":8478,"\u9020":8479,"\u9021":8480,"\u9022":8481,"\u9023":8482,"\u902e":8483,"\u902f":8484,"\u9031":8485,"\u9032":8486,"\u9035":8487,"\u9038":8488,"\u9039":8489,"\u903b":8490,"\u903c":8491,"\u903e":8492,"\u9041":8493,"\u9042":8494,"\u9045":8495,"\u9047":8496,"\u904a":8497,"\u904b":8498,"\u904d":8499,"\u904e":8500,"\u904f":8501,"\u9050":8502,"\u9051":8503,"\u9052":8504,"\u9053":8505,"\u9054":8506,"\u9055":8507,"\u9057":8508,"\u9058":8509,"\u9059":8510,"\u905c":8511,"\u905e":8512,"\u9060":8513,"\u9061":8514,"\u9063":8515,"\u9065":8516,"\u9068":8517,"\u9069":8518,"\u906d":8519,"\u906e":8520,"\u9072":8521,"\u9074":8522,"\u9075":8523,"\u9076":8524,"\u9077":8525,"\u9078":8526,"\u9079":8527,"\u907a":8528,"\u907c":8529,"\u907d":8530,"\u907f":8531,"\u9080":8532,"\u9081":8533,"\u9082":8534,"\u9083":8535,"\u9084":8536,"\u9087":8537,"\u9088":8538,"\u9089":8539,"\u908a":8540,"\u908f":8541,"\u9091":8542,"\u9093":8543,"\u9095":8544,"\u9097":8545,"\u9099":8546,"\u909b":8547,"\u909d":8548,"\u90a0":8549,"\u90a1":8550,"\u90a2":8551,"\u90a3":8552,"\u90a6":8553,"\u90a8":8554,"\u90aa":8555,"\u90ac":8556,"\u90ae":8557,"\u90af":8558,"\u90b0":8559,"\u90b1":8560,"\u90b3":8561,"\u90b4":8562,"\u90b5":8563,"\u90b8":8564,"\u90b9":8565,"\u90ba":8566,"\u90bb":8567,"\u90bd":8568,"\u90be":8569,"\u90c1":8570,"\u90c3":8571,"\u90c5":8572,"\u90c7":8573,"\u90ca":8574,"\u90ce":8575,"\u90d1":8576,"\u90d3":8577,"\u90d5":8578,"\u90d7":8579,"\u90db":8580,"\u90dc":8581,"\u90dd":8582,"\u90de":8583,"\u90e1":8584,"\u90e2":8585,"\u90e4":8586,"\u90e6":8587,"\u90e7":8588,"\u90e8":8589,"\u90eb":8590,"\u90ed":8591,"\u90ef":8592,"\u90f4":8593,"\u90f5":8594,"\u90f7":8595,"\u90f8":8596,"\u90fd":8597,"\u90fe":8598,"\u90ff":8599,"\u9102":8600,"\u9104":8601,"\u9106":8602,"\u9109":8603,"\u9112":8604,"\u9114":8605,"\u9115":8606,"\u9116":8607,"\u9119":8608,"\u911a":8609,"\u911c":8610,"\u911e":8611,"\u9120":8612,"\u9122":8613,"\u9123":8614,"\u9127":8615,"\u912d":8616,"\u912f":8617,"\u9130":8618,"\u9131":8619,"\u9132":8620,"\u9134":8621,"\u913a":8622,"\u9146":8623,"\u9148":8624,"\u9149":8625,"\u914a":8626,"\u914b":8627,"\u914c":8628,"\u914d":8629,"\u914e":8630,"\u9150":8631,"\u9152":8632,"\u9154":8633,"\u9157":8634,"\u915a":8635,"\u915d":8636,"\u915e":8637,"\u9162":8638,"\u9163":8639,"\u9165":8640,"\u9169":8641,"\u916a":8642,"\u916c":8643,"\u916e":8644,"\u916f":8645,"\u9170":8646,"\u9171":8647,"\u9175":8648,"\u9176":8649,"\u9177":8650,"\u9178":8651,"\u917f":8652,"\u9183":8653,"\u9187":8654,"\u9189":8655,"\u918b":8656,"\u918c":8657,"\u918d":8658,"\u9190":8659,"\u9192":8660,"\u9197":8661,"\u919a":8662,"\u919b":8663,"\u919c":8664,"\u919e":8665,"\u91a3":8666,"\u91a4":8667,"\u91aa":8668,"\u91ab":8669,"\u91ac":8670,"\u91ae":8671,"\u91af":8672,"\u91b4":8673,"\u91b8":8674,"\u91ba":8675,"\u91c0":8676,"\u91c1":8677,"\u91c7":8678,"\u91c8":8679,"\u91c9":8680,"\u91ca":8681,"\u91cb":8682,"\u91cc":8683,"\u91cd":8684,"\u91ce":8685,"\u91cf":8686,"\u91d0":8687,"\u91d1":8688,"\u91d4":8689,"\u91d7":8690,"\u91d8":8691,"\u91dc":8692,"\u91dd":8693,"\u91e3":8694,"\u91e4":8695,"\u91e7":8696,"\u91e9":8697,"\u91f5":8698,"\u91f7":8699,"\u9200":8700,"\u9209":8701,"\u920d":8702,"\u920e":8703,"\u9210":8704,"\u9211":8705,"\u9214":8706,"\u9215":8707,"\u921e":8708,"\u9223":8709,"\u9226":8710,"\u922e":8711,"\u9230":8712,"\u9234":8713,"\u9237":8714,"\u9238":8715,"\u9239":8716,"\u923a":8717,"\u923d":8718,"\u923e":8719,"\u923f":8720,"\u9240":8721,"\u9244":8722,"\u9245":8723,"\u9248":8724,"\u9249":8725,"\u924b":8726,"\u924d":8727,"\u924f":8728,"\u9251":8729,"\u9257":8730,"\u925a":8731,"\u925b":8732,"\u925e":8733,"\u9262":8734,"\u9264":8735,"\u9266":8736,"\u926c":8737,"\u926d":8738,"\u9271":8739,"\u9274":8740,"\u9278":8741,"\u927b":8742,"\u927e":8743,"\u9280":8744,"\u9283":8745,"\u9285":8746,"\u9291":8747,"\u9293":8748,"\u9295":8749,"\u9296":8750,"\u9298":8751,"\u929a":8752,"\u929b":8753,"\u929c":8754,"\u92a3":8755,"\u92a5":8756,"\u92a6":8757,"\u92a8":8758,"\u92ab":8759,"\u92ac":8760,"\u92ad":8761,"\u92ae":8762,"\u92b3":8763,"\u92b7":8764,"\u92b9":8765,"\u92bb":8766,"\u92bc":8767,"\u92c1":8768,"\u92c5":8769,"\u92c6":8770,"\u92c7":8771,"\u92cc":8772,"\u92cf":8773,"\u92d0":8774,"\u92d2":8775,"\u92e4":8776,"\u92ea":8777,"\u92ed":8778,"\u92ef":8779,"\u92f0":8780,"\u92f2":8781,"\u92f3":8782,"\u92f8":8783,"\u92f9":8784,"\u92fc":8785,"\u9304":8786,"\u9306":8787,"\u9310":8788,"\u9312":8789,"\u9315":8790,"\u9318":8791,"\u931a":8792,"\u9320":8793,"\u9321":8794,"\u9322":8795,"\u9326":8796,"\u9328":8797,"\u932b":8798,"\u932c":8799,"\u932e":8800,"\u932f":8801,"\u9332":8802,"\u9333":8803,"\u9336":8804,"\u9338":8805,"\u9347":8806,"\u934a":8807,"\u934b":8808,"\u934d":8809,"\u9354":8810,"\u935b":8811,"\u936c":8812,"\u936e":8813,"\u9370":8814,"\u9371":8815,"\u9375":8816,"\u9376":8817,"\u937a":8818,"\u937c":8819,"\u937e":8820,"\u9382":8821,"\u938a":8822,"\u938c":8823,"\u938f":8824,"\u9394":8825,"\u9396":8826,"\u9397":8827,"\u9398":8828,"\u939a":8829,"\u939d":8830,"\u93a2":8831,"\u93a7":8832,"\u93ac":8833,"\u93ad":8834,"\u93ae":8835,"\u93b0":8836,"\u93b3":8837,"\u93b5":8838,"\u93c3":8839,"\u93c8":8840,"\u93ca":8841,"\u93d0":8842,"\u93d1":8843,"\u93d6":8844,"\u93d7":8845,"\u93d8":8846,"\u93dc":8847,"\u93de":8848,"\u93df":8849,"\u93e1":8850,"\u93e2":8851,"\u93e4":8852,"\u93f5":8853,"\u93fd":8854,"\u9410":8855,"\u9418":8856,"\u9419":8857,"\u9421":8858,"\u942b":8859,"\u942e":8860,"\u9432":8861,"\u9433":8862,"\u9435":8863,"\u9438":8864,"\u943a":8865,"\u9444":8866,"\u9445":8867,"\u9451":8868,"\u9452":8869,"\u9453":8870,"\u945b":8871,"\u9460":8872,"\u9463":8873,"\u946b":8874,"\u946d":8875,"\u9470":8876,"\u9472":8877,"\u947c":8878,"\u947d":8879,"\u947e":8880,"\u947f":8881,"\u9487":8882,"\u9488":8883,"\u9489":8884,"\u948a":8885,"\u948d":8886,"\u948f":8887,"\u9492":8888,"\u9493":8889,"\u9497":8890,"\u9499":8891,"\u949a":8892,"\u949b":8893,"\u949c":8894,"\u949d":8895,"\u949e":8896,"\u949f":8897,"\u94a0":8898,"\u94a1":8899,"\u94a2":8900,"\u94a4":8901,"\u94a5":8902,"\u94a6":8903,"\u94a7":8904,"\u94a8":8905,"\u94a9":8906,"\u94ab":8907,"\u94ae":8908,"\u94af":8909,"\u94b0":8910,"\u94b1":8911,"\u94b3":8912,"\u94b4":8913,"\u94b5":8914,"\u94b9":8915,"\u94ba":8916,"\u94bb":8917,"\u94bc":8918,"\u94bd":8919,"\u94be":8920,"\u94bf":8921,"\u94c0":8922,"\u94c1":8923,"\u94c2":8924,"\u94c3":8925,"\u94c5":8926,"\u94c6":8927,"\u94c8":8928,"\u94c9":8929,"\u94ca":8930,"\u94cb":8931,"\u94cc":8932,"\u94cd":8933,"\u94ce":8934,"\u94d0":8935,"\u94db":8936,"\u94dc":8937,"\u94dd":8938,"\u94df":8939,"\u94e0":8940,"\u94e2":8941,"\u94e3":8942,"\u94e4":8943,"\u94e7":8944,"\u94e8":8945,"\u94eb":8946,"\u94ec":8947,"\u94ed":8948,"\u94ee":8949,"\u94ef":8950,"\u94f0":8951,"\u94f1":8952,"\u94f2":8953,"\u94f3":8954,"\u94f5":8955,"\u94f6":8956,"\u94f7":8957,"\u94f8":8958,"\u94fa":8959,"\u94fc":8960,"\u94fe":8961,"\u94ff":8962,"\u9500":8963,"\u9501":8964,"\u9502":8965,"\u9504":8966,"\u9505":8967,"\u9506":8968,"\u9508":8969,"\u9509":8970,"\u950b":8971,"\u950c":8972,"\u9510":8973,"\u9511":8974,"\u9515":8975,"\u9517":8976,"\u9519":8977,"\u951a":8978,"\u951c":8979,"\u951d":8980,"\u951f":8981,"\u9521":8982,"\u9522":8983,"\u9523":8984,"\u9524":8985,"\u9525":8986,"\u9526":8987,"\u952d":8988,"\u952e":8989,"\u952f":8990,"\u9530":8991,"\u9534":8992,"\u9535":8993,"\u9536":8994,"\u9537":8995,"\u9539":8996,"\u953a":8997,"\u953b":8998,"\u953d":8999,"\u953e":9000,"\u9540":9001,"\u9541":9002,"\u9542":9003,"\u9547":9004,"\u9549":9005,"\u954c":9006,"\u954d":9007,"\u9550":9008,"\u9551":9009,"\u9552":9010,"\u9553":9011,"\u9555":9012,"\u9556":9013,"\u9557":9014,"\u955b":9015,"\u955c":9016,"\u955d":9017,"\u9560":9018,"\u9567":9019,"\u956b":9020,"\u956d":9021,"\u956f":9022,"\u9570":9023,"\u9573":9024,"\u9576":9025,"\u9577":9026,"\u957f":9027,"\u9580":9028,"\u9582":9029,"\u9583":9030,"\u9586":9031,"\u9589":9032,"\u958b":9033,"\u958e":9034,"\u958f":9035,"\u9591":9036,"\u9592":9037,"\u9593":9038,"\u9594":9039,"\u9598":9040,"\u95a1":9041,"\u95a2":9042,"\u95a3":9043,"\u95a4":9044,"\u95a5":9045,"\u95a8":9046,"\u95a9":9047,"\u95ac":9048,"\u95ad":9049,"\u95b1":9050,"\u95b2":9051,"\u95b9":9052,"\u95bb":9053,"\u95bc":9054,"\u95be":9055,"\u95c6":9056,"\u95c7":9057,"\u95c8":9058,"\u95ca":9059,"\u95cb":9060,"\u95cc":9061,"\u95cd":9062,"\u95d0":9063,"\u95d3":9064,"\u95d4":9065,"\u95d5":9066,"\u95d6":9067,"\u95d8":9068,"\u95dc":9069,"\u95de":9070,"\u95e1":9071,"\u95e2":9072,"\u95e5":9073,"\u95e8":9074,"\u95e9":9075,"\u95ea":9076,"\u95eb":9077,"\u95ed":9078,"\u95ee":9079,"\u95ef":9080,"\u95f0":9081,"\u95f1":9082,"\u95f2":9083,"\u95f3":9084,"\u95f4":9085,"\u95f5":9086,"\u95f7":9087,"\u95f8":9088,"\u95f9":9089,"\u95fa":9090,"\u95fb":9091,"\u95fc":9092,"\u95fd":9093,"\u95fe":9094,"\u95ff":9095,"\u9600":9096,"\u9601":9097,"\u9602":9098,"\u9605":9099,"\u9606":9100,"\u9607":9101,"\u9608":9102,"\u9609":9103,"\u960e":9104,"\u960f":9105,"\u9610":9106,"\u9611":9107,"\u9614":9108,"\u9615":9109,"\u9616":9110,"\u9617":9111,"\u9619":9112,"\u961a":9113,"\u961c":9114,"\u961d":9115,"\u961f":9116,"\u9621":9117,"\u962a":9118,"\u962e":9119,"\u962f":9120,"\u9631":9121,"\u9632":9122,"\u9633":9123,"\u9634":9124,"\u9635":9125,"\u9636":9126,"\u963b":9127,"\u963f":9128,"\u9640":9129,"\u9642":9130,"\u9644":9131,"\u9645":9132,"\u9646":9133,"\u9647":9134,"\u9648":9135,"\u9649":9136,"\u964b":9137,"\u964c":9138,"\u964d":9139,"\u9650":9140,"\u9654":9141,"\u9655":9142,"\u9658":9143,"\u965b":9144,"\u965c":9145,"\u965d":9146,"\u965e":9147,"\u965f":9148,"\u9661":9149,"\u9662":9150,"\u9663":9151,"\u9664":9152,"\u9665":9153,"\u9668":9154,"\u9669":9155,"\u966a":9156,"\u9670":9157,"\u9672":9158,"\u9673":9159,"\u9675":9160,"\u9676":9161,"\u9677":9162,"\u9678":9163,"\u967a":9164,"\u967d":9165,"\u9685":9166,"\u9686":9167,"\u9688":9168,"\u968a":9169,"\u968b":9170,"\u968d":9171,"\u968e":9172,"\u968f":9173,"\u9690":9174,"\u9694":9175,"\u9695":9176,"\u9697":9177,"\u9698":9178,"\u9699":9179,"\u969b":9180,"\u969c":9181,"\u96a0":9182,"\u96a3":9183,"\u96a7":9184,"\u96a8":9185,"\u96aa":9186,"\u96b0":9187,"\u96b1":9188,"\u96b4":9189,"\u96b6":9190,"\u96b7":9191,"\u96b8":9192,"\u96b9":9193,"\u96bb":9194,"\u96bc":9195,"\u96bd":9196,"\u96be":9197,"\u96c0":9198,"\u96c1":9199,"\u96c4":9200,"\u96c5":9201,"\u96c6":9202,"\u96c7":9203,"\u96c9":9204,"\u96cb":9205,"\u96cc":9206,"\u96cd":9207,"\u96ce":9208,"\u96cf":9209,"\u96d1":9210,"\u96d2":9211,"\u96d5":9212,"\u96d6":9213,"\u96d9":9214,"\u96db":9215,"\u96dc":9216,"\u96de":9217,"\u96e0":9218,"\u96e2":9219,"\u96e3":9220,"\u96e8":9221,"\u96e9":9222,"\u96ea":9223,"\u96eb":9224,"\u96ef":9225,"\u96f0":9226,"\u96f2":9227,"\u96f3":9228,"\u96f6":9229,"\u96f7":9230,"\u96f9":9231,"\u96fb":9232,"\u96fe":9233,"\u9700":9234,"\u9701":9235,"\u9704":9236,"\u9706":9237,"\u9707":9238,"\u9708":9239,"\u9709":9240,"\u970a":9241,"\u970d":9242,"\u970e":9243,"\u970f":9244,"\u9711":9245,"\u9713":9246,"\u9716":9247,"\u971c":9248,"\u971e":9249,"\u9727":9250,"\u972d":9251,"\u9730":9252,"\u9732":9253,"\u9738":9254,"\u9739":9255,"\u973d":9256,"\u973e":9257,"\u9742":9258,"\u9744":9259,"\u9748":9260,"\u9751":9261,"\u9752":9262,"\u9753":9263,"\u9756":9264,"\u9759":9265,"\u975a":9266,"\u975b":9267,"\u975c":9268,"\u975e":9269,"\u9760":9270,"\u9761":9271,"\u9762":9272,"\u9769":9273,"\u976d":9274,"\u9771":9275,"\u9773":9276,"\u9774":9277,"\u9776":9278,"\u977a":9279,"\u977c":9280,"\u9784":9281,"\u9785":9282,"\u9786":9283,"\u978b":9284,"\u978d":9285,"\u978f":9286,"\u9791":9287,"\u9798":9288,"\u979e":9289,"\u97a0":9290,"\u97a3":9291,"\u97a6":9292,"\u97a8":9293,"\u97ab":9294,"\u97ac":9295,"\u97ad":9296,"\u97ae":9297,"\u97b4":9298,"\u97c3":9299,"\u97c6":9300,"\u97cb":9301,"\u97cc":9302,"\u97d3":9303,"\u97dc":9304,"\u97de":9305,"\u97e6":9306,"\u97e7":9307,"\u97e9":9308,"\u97eb":9309,"\u97ec":9310,"\u97ed":9311,"\u97ee":9312,"\u97f3":9313,"\u97f5":9314,"\u97f6":9315,"\u97fb":9316,"\u97ff":9317,"\u9801":9318,"\u9802":9319,"\u9803":9320,"\u9805":9321,"\u9806":9322,"\u9808":9323,"\u980a":9324,"\u980c":9325,"\u9810":9326,"\u9811":9327,"\u9812":9328,"\u9813":9329,"\u9817":9330,"\u9818":9331,"\u981a":9332,"\u981c":9333,"\u9820":9334,"\u9821":9335,"\u9824":9336,"\u9826":9337,"\u982b":9338,"\u982c":9339,"\u982d":9340,"\u9830":9341,"\u9834":9342,"\u9835":9343,"\u9837":9344,"\u9838":9345,"\u9839":9346,"\u983b":9347,"\u983c":9348,"\u983d":9349,"\u9846":9350,"\u984c":9351,"\u984d":9352,"\u984e":9353,"\u984f":9354,"\u9852":9355,"\u9853":9356,"\u9854":9357,"\u9855":9358,"\u9857":9359,"\u9858":9360,"\u985b":9361,"\u985e":9362,"\u9865":9363,"\u9867":9364,"\u986b":9365,"\u986f":9366,"\u9870":9367,"\u9871":9368,"\u9873":9369,"\u9875":9370,"\u9876":9371,"\u9877":9372,"\u9879":9373,"\u987a":9374,"\u987b":9375,"\u987c":9376,"\u987d":9377,"\u987e":9378,"\u987f":9379,"\u9881":9380,"\u9882":9381,"\u9884":9382,"\u9885":9383,"\u9886":9384,"\u9887":9385,"\u9888":9386,"\u9889":9387,"\u988a":9388,"\u988c":9389,"\u988d":9390,"\u988f":9391,"\u9890":9392,"\u9891":9393,"\u9893":9394,"\u9894":9395,"\u9896":9396,"\u9897":9397,"\u9898":9398,"\u9899":9399,"\u989a":9400,"\u989b":9401,"\u989c":9402,"\u989d":9403,"\u989e":9404,"\u98a0":9405,"\u98a2":9406,"\u98a4":9407,"\u98a8":9408,"\u98af":9409,"\u98b1":9410,"\u98b3":9411,"\u98b6":9412,"\u98c4":9413,"\u98c6":9414,"\u98c8":9415,"\u98ce":9416,"\u98d2":9417,"\u98d3":9418,"\u98d8":9419,"\u98d9":9420,"\u98da":9421,"\u98db":9422,"\u98dc":9423,"\u98de":9424,"\u98df":9425,"\u98e1":9426,"\u98e2":9427,"\u98e8":9428,"\u98e9":9429,"\u98ea":9430,"\u98eb":9431,"\u98ed":9432,"\u98ee":9433,"\u98ef":9434,"\u98f2":9435,"\u98f4":9436,"\u98fc":9437,"\u98fd":9438,"\u98fe":9439,"\u9903":9440,"\u9905":9441,"\u9909":9442,"\u990a":9443,"\u990c":9444,"\u9910":9445,"\u9913":9446,"\u9918":9447,"\u991a":9448,"\u991e":9449,"\u9921":9450,"\u9928":9451,"\u992e":9452,"\u9935":9453,"\u993e":9454,"\u9945":9455,"\u9949":9456,"\u994b":9457,"\u994c":9458,"\u9951":9459,"\u9952":9460,"\u9955":9461,"\u9957":9462,"\u9965":9463,"\u996a":9464,"\u996c":9465,"\u996d":9466,"\u996e":9467,"\u996f":9468,"\u9970":9469,"\u9971":9470,"\u9972":9471,"\u9975":9472,"\u9976":9473,"\u9977":9474,"\u997a":9475,"\u997c":9476,"\u997f":9477,"\u9980":9478,"\u9985":9479,"\u9986":9480,"\u9988":9481,"\u998f":9482,"\u9991":9483,"\u9992":9484,"\u9994":9485,"\u9996":9486,"\u9997":9487,"\u9998":9488,"\u9999":9489,"\u99a5":9490,"\u99a8":9491,"\u99ac":9492,"\u99ad":9493,"\u99ae":9494,"\u99b1":9495,"\u99b3":9496,"\u99b4":9497,"\u99c1":9498,"\u99c4":9499,"\u99c5":9500,"\u99c6":9501,"\u99c8":9502,"\u99d0":9503,"\u99d2":9504,"\u99d5":9505,"\u99d9":9506,"\u99db":9507,"\u99dd":9508,"\u99df":9509,"\u99e2":9510,"\u99ed":9511,"\u99f1":9512,"\u99f8":9513,"\u99ff":9514,"\u9a01":9515,"\u9a0e":9516,"\u9a0f":9517,"\u9a12":9518,"\u9a13":9519,"\u9a19":9520,"\u9a28":9521,"\u9a2b":9522,"\u9a2d":9523,"\u9a2e":9524,"\u9a30":9525,"\u9a36":9526,"\u9a37":9527,"\u9a3e":9528,"\u9a43":9529,"\u9a45":9530,"\u9a4a":9531,"\u9a4d":9532,"\u9a52":9533,"\u9a55":9534,"\u9a57":9535,"\u9a5a":9536,"\u9a5b":9537,"\u9a5f":9538,"\u9a62":9539,"\u9a64":9540,"\u9a65":9541,"\u9a69":9542,"\u9a6a":9543,"\u9a6c":9544,"\u9a6d":9545,"\u9a6e":9546,"\u9a6f":9547,"\u9a70":9548,"\u9a71":9549,"\u9a73":9550,"\u9a74":9551,"\u9a76":9552,"\u9a77":9553,"\u9a78":9554,"\u9a79":9555,"\u9a7a":9556,"\u9a7b":9557,"\u9a7c":9558,"\u9a7e":9559,"\u9a7f":9560,"\u9a81":9561,"\u9a82":9562,"\u9a84":9563,"\u9a85":9564,"\u9a86":9565,"\u9a87":9566,"\u9a88":9567,"\u9a8a":9568,"\u9a8b":9569,"\u9a8c":9570,"\u9a8f":9571,"\u9a90":9572,"\u9a91":9573,"\u9a97":9574,"\u9a98":9575,"\u9a9a":9576,"\u9a9d":9577,"\u9a9e":9578,"\u9aa0":9579,"\u9aa1":9580,"\u9aa4":9581,"\u9aa5":9582,"\u9aa7":9583,"\u9aa8":9584,"\u9aaf":9585,"\u9ab0":9586,"\u9ab6":9587,"\u9ab7":9588,"\u9ab8":9589,"\u9abc":9590,"\u9ac0":9591,"\u9ac2":9592,"\u9ac4":9593,"\u9ac5":9594,"\u9acb":9595,"\u9acf":9596,"\u9ad1":9597,"\u9ad2":9598,"\u9ad3":9599,"\u9ad4":9600,"\u9ad6":9601,"\u9ad8":9602,"\u9ad9":9603,"\u9ae1":9604,"\u9ae3":9605,"\u9ae6":9606,"\u9aea":9607,"\u9aed":9608,"\u9aee":9609,"\u9aef":9610,"\u9af4":9611,"\u9af7":9612,"\u9af9":9613,"\u9afb":9614,"\u9b03":9615,"\u9b06":9616,"\u9b0d":9617,"\u9b13":9618,"\u9b18":9619,"\u9b1a":9620,"\u9b1f":9621,"\u9b22":9622,"\u9b23":9623,"\u9b25":9624,"\u9b27":9625,"\u9b28":9626,"\u9b2a":9627,"\u9b2c":9628,"\u9b2f":9629,"\u9b31":9630,"\u9b32":9631,"\u9b3b":9632,"\u9b3c":9633,"\u9b41":9634,"\u9b42":9635,"\u9b43":9636,"\u9b44":9637,"\u9b45":9638,"\u9b47":9639,"\u9b49":9640,"\u9b4b":9641,"\u9b4d":9642,"\u9b4e":9643,"\u9b4f":9644,"\u9b51":9645,"\u9b54":9646,"\u9b58":9647,"\u9b5a":9648,"\u9b5f":9649,"\u9b63":9650,"\u9b68":9651,"\u9b6e":9652,"\u9b6f":9653,"\u9b74":9654,"\u9b77":9655,"\u9b83":9656,"\u9b84":9657,"\u9b88":9658,"\u9b8b":9659,"\u9b8e":9660,"\u9b91":9661,"\u9b92":9662,"\u9b97":9663,"\u9b9f":9664,"\u9ba0":9665,"\u9ba1":9666,"\u9ba8":9667,"\u9baa":9668,"\u9bab":9669,"\u9bad":9670,"\u9bae":9671,"\u9bc9":9672,"\u9bca":9673,"\u9bd2":9674,"\u9bd3":9675,"\u9bd4":9676,"\u9bd6":9677,"\u9bd9":9678,"\u9bdb":9679,"\u9be1":9680,"\u9be4":9681,"\u9be7":9682,"\u9be8":9683,"\u9bea":9684,"\u9bf0":9685,"\u9bf1":9686,"\u9bf5":9687,"\u9bf7":9688,"\u9bfd":9689,"\u9c02":9690,"\u9c08":9691,"\u9c0d":9692,"\u9c10":9693,"\u9c13":9694,"\u9c15":9695,"\u9c27":9696,"\u9c28":9697,"\u9c29":9698,"\u9c2d":9699,"\u9c2f":9700,"\u9c32":9701,"\u9c39":9702,"\u9c3a":9703,"\u9c3b":9704,"\u9c3e":9705,"\u9c42":9706,"\u9c47":9707,"\u9c48":9708,"\u9c49":9709,"\u9c52":9710,"\u9c54":9711,"\u9c57":9712,"\u9c58":9713,"\u9c5a":9714,"\u9c5f":9715,"\u9c65":9716,"\u9c67":9717,"\u9c68":9718,"\u9c72":9719,"\u9c75":9720,"\u9c77":9721,"\u9c78":9722,"\u9c7a":9723,"\u9c7c":9724,"\u9c7f":9725,"\u9c80":9726,"\u9c81":9727,"\u9c82":9728,"\u9c86":9729,"\u9c87":9730,"\u9c88":9731,"\u9c89":9732,"\u9c8d":9733,"\u9c8e":9734,"\u9c91":9735,"\u9c94":9736,"\u9c97":9737,"\u9c9b":9738,"\u9c9c":9739,"\u9c9f":9740,"\u9ca1":9741,"\u9ca3":9742,"\u9ca4":9743,"\u9ca8":9744,"\u9cab":9745,"\u9cac":9746,"\u9cad":9747,"\u9cae":9748,"\u9cb1":9749,"\u9cb2":9750,"\u9cb3":9751,"\u9cb6":9752,"\u9cb7":9753,"\u9cb8":9754,"\u9cb9":9755,"\u9cbb":9756,"\u9cbd":9757,"\u9cbf":9758,"\u9cc0":9759,"\u9cc3":9760,"\u9cc4":9761,"\u9cc5":9762,"\u9cc9":9763,"\u9ccc":9764,"\u9ccd":9765,"\u9cce":9766,"\u9cd0":9767,"\u9cd4":9768,"\u9cd5":9769,"\u9cd6":9770,"\u9cd7":9771,"\u9cda":9772,"\u9cdd":9773,"\u9cde":9774,"\u9cdf":9775,"\u9ce2":9776,"\u9ce5":9777,"\u9ce7":9778,"\u9ce9":9779,"\u9cf3":9780,"\u9cf4":9781,"\u9cf6":9782,"\u9d07":9783,"\u9d08":9784,"\u9d09":9785,"\u9d0e":9786,"\u9d12":9787,"\u9d15":9788,"\u9d1b":9789,"\u9d1d":9790,"\u9d1e":9791,"\u9d1f":9792,"\u9d23":9793,"\u9d26":9794,"\u9d28":9795,"\u9d2b":9796,"\u9d3b":9797,"\u9d3f":9798,"\u9d44":9799,"\u9d51":9800,"\u9d59":9801,"\u9d5c":9802,"\u9d5d":9803,"\u9d5e":9804,"\u9d5f":9805,"\u9d60":9806,"\u9d61":9807,"\u9d6c":9808,"\u9d6f":9809,"\u9d70":9810,"\u9d72":9811,"\u9d7a":9812,"\u9d87":9813,"\u9d89":9814,"\u9d8f":9815,"\u9d98":9816,"\u9d9a":9817,"\u9da5":9818,"\u9daf":9819,"\u9db2":9820,"\u9db4":9821,"\u9dba":9822,"\u9dbb":9823,"\u9dbf":9824,"\u9dc2":9825,"\u9dc4":9826,"\u9dd3":9827,"\u9dd7":9828,"\u9def":9829,"\u9df2":9830,"\u9df8":9831,"\u9df9":9832,"\u9dfa":9833,"\u9e15":9834,"\u9e1a":9835,"\u9e1b":9836,"\u9e1e":9837,"\u9e1f":9838,"\u9e20":9839,"\u9e21":9840,"\u9e22":9841,"\u9e23":9842,"\u9e25":9843,"\u9e26":9844,"\u9e28":9845,"\u9e2a":9846,"\u9e2b":9847,"\u9e2c":9848,"\u9e2d":9849,"\u9e2e":9850,"\u9e2f":9851,"\u9e30":9852,"\u9e32":9853,"\u9e33":9854,"\u9e35":9855,"\u9e3d":9856,"\u9e3e":9857,"\u9e3f":9858,"\u9e40":9859,"\u9e43":9860,"\u9e44":9861,"\u9e45":9862,"\u9e48":9863,"\u9e49":9864,"\u9e4a":9865,"\u9e4c":9866,"\u9e4e":9867,"\u9e4f":9868,"\u9e51":9869,"\u9e55":9870,"\u9e57":9871,"\u9e58":9872,"\u9e5a":9873,"\u9e5b":9874,"\u9e5e":9875,"\u9e5f":9876,"\u9e61":9877,"\u9e64":9878,"\u9e66":9879,"\u9e67":9880,"\u9e69":9881,"\u9e6b":9882,"\u9e6c":9883,"\u9e6d":9884,"\u9e6e":9885,"\u9e70":9886,"\u9e73":9887,"\u9e75":9888,"\u9e78":9889,"\u9e79":9890,"\u9e7c":9891,"\u9e7d":9892,"\u9e7f":9893,"\u9e81":9894,"\u9e82":9895,"\u9e8b":9896,"\u9e92":9897,"\u9e93":9898,"\u9e97":9899,"\u9e9d":9900,"\u9e9f":9901,"\u9ea4":9902,"\u9ea5":9903,"\u9ea6":9904,"\u9ea9":9905,"\u9eb4":9906,"\u9eb5":9907,"\u9eb8":9908,"\u9eb9":9909,"\u9eba":9910,"\u9ebb":9911,"\u9ebc":9912,"\u9ebd":9913,"\u9ebe":9914,"\u9ebf":9915,"\u9ec3":9916,"\u9ec4":9917,"\u9ecc":9918,"\u9ecd":9919,"\u9ece":9920,"\u9ecf":9921,"\u9ed0":9922,"\u9ed1":9923,"\u9ed2":9924,"\u9ed4":9925,"\u9ed8":9926,"\u9ed9":9927,"\u9edb":9928,"\u9edc":9929,"\u9edd":9930,"\u9ede":9931,"\u9edf":9932,"\u9ee0":9933,"\u9ee5":9934,"\u9ee8":9935,"\u9eef":9936,"\u9ef4":9937,"\u9efb":9938,"\u9efc":9939,"\u9f08":9940,"\u9f0e":9941,"\u9f10":9942,"\u9f13":9943,"\u9f20":9944,"\u9f29":9945,"\u9f2c":9946,"\u9f2f":9947,"\u9f31":9948,"\u9f34":9949,"\u9f39":9950,"\u9f3b":9951,"\u9f4a":9952,"\u9f4b":9953,"\u9f4e":9954,"\u9f50":9955,"\u9f52":9956,"\u9f5f":9957,"\u9f61":9958,"\u9f62":9959,"\u9f63":9960,"\u9f66":9961,"\u9f67":9962,"\u9f6c":9963,"\u9f76":9964,"\u9f7f":9965,"\u9f84":9966,"\u9f88":9967,"\u9f8d":9968,"\u9f90":9969,"\u9f91":9970,"\u9f94":9971,"\u9f95":9972,"\u9f99":9973,"\u9f9a":9974,"\u9f9b":9975,"\u9f9c":9976,"\u9f9f":9977,"\u9fa2":9978,"\u9fb8":9979,"\ua9c9":9980,"\ufa11":9981,"\ufb56":9982,"\ufb58":9983,"\ufb8f":9984,"\ufb90":9985,"\ufb9f":9986,"\ufba7":9987,"\ufba8":9988,"\ufbad":9989,"\ufbaf":9990,"\ufbfd":9991,"\ufbfe":9992,"\ufbff":9993,"\ufd3e":9994,"\ufd3f":9995,"\ufdf2":9996,"\ufdfa":9997,"\ufe30":9998,"\ufe50":9999,"\ufe51":10000,"\ufe52":10001,"\ufe54":10002,"\ufe55":10003,"\ufe59":10004,"\ufe5a":10005,"\ufe5d":10006,"\ufe5e":10007,"\ufe63":10008,"\ufe8d":10009,"\ufe8e":10010,"\ufe91":10011,"\ufe97":10012,"\ufe9f":10013,"\ufead":10014,"\ufeae":10015,"\ufeb1":10016,"\ufeb3":10017,"\ufee3":10018,"\ufee6":10019,"\ufee7":10020,"\ufeed":10021,"\ufeee":10022,"\uff01":10023,"\uff02":10024,"\uff03":10025,"\uff05":10026,"\uff06":10027,"\uff08":10028,"\uff09":10029,"\uff0a":10030,"\uff0b":10031,"\uff0c":10032,"\uff0d":10033,"\uff0e":10034,"\uff0f":10035,"\uff10":10036,"\uff11":10037,"\uff12":10038,"\uff13":10039,"\uff14":10040,"\uff15":10041,"\uff16":10042,"\uff17":10043,"\uff18":10044,"\uff19":10045,"\uff1a":10046,"\uff1b":10047,"\uff1c":10048,"\uff1d":10049,"\uff1e":10050,"\uff1f":10051,"\uff20":10052,"\uff3b":10053,"\uff3c":10054,"\uff3d":10055,"\uff3f":10056,"\uff41":10057,"\uff42":10058,"\uff43":10059,"\uff44":10060,"\uff45":10061,"\uff46":10062,"\uff47":10063,"\uff48":10064,"\uff49":10065,"\uff4a":10066,"\uff4b":10067,"\uff4c":10068,"\uff4d":10069,"\uff4e":10070,"\uff4f":10071,"\uff50":10072,"\uff52":10073,"\uff53":10074,"\uff54":10075,"\uff56":10076,"\uff57":10077,"\uff58":10078,"\uff5a":10079,"\uff5b":10080,"\uff5c":10081,"\uff5d":10082,"\uff5e":10083,"\uff61":10084,"\uff62":10085,"\uff63":10086,"\uff64":10087,"\uff65":10088,"\uff70":10089,"\uffe5":10090,"\ufffc":10091,"\ud867\udf7e":10092,"\ud867\udf8c":10093,"\ud86a\ude36":10094,"\ud86d\uddae":10095,"\ud86d\ude89":10096,"\ud86d\ude92":10097,"\ud870\udc29":10098,"\ud871\ude2d":10099,"\ud871\udf9f":10100,"\ud873\udd8b":10101,"de":10102,"the":10103,"in":10104,"sa":10105,"la":10106,"##s":10107,"of":10108,"en":10109,"and":10110,"##e":10111,"##a":10112,"ang":10113,"to":10114,"##n":10115,"##i":10116,"el":10117,"der":10118,"un":10119,"di":10120,"die":10121,"nga":10122,"##t":10123,"\u043d\u0430":10124,"on":10125,"que":10126,"is":10127,"se":10128,"den":10129,"le":10130,"##r":10131,"##o":10132,"ar":10133,"del":10134,"na":10135,"##u":10136,"et":10137,"und":10138,"for":10139,"was":10140,"da":10141,"##en":10142,"des":10143,"an":10144,"il":10145,"as":10146,"van":10147,"10":10148,"je":10149,"##m":10150,"by":10151,"les":10152,"es":10153,"do":10154,"una":10155,"nasa":10156,"2011":10157,"##y":10158,"##l":10159,"at":10160,"al":10161,"er":10162,"##d":10163,"og":10164,"##es":10165,"km":10166,"##k":10167,"von":10168,"du":10169,"11":10170,"with":10171,"2000":10172,"con":10173,"per":10174,"los":10175,"\u00b0c":10176,"##er":10177,"##\u0438":10178,"av":10179,"med":10180,"no":10181,"est":10182,"2010":10183,"het":10184,"##\u0430":10185,"och":10186,"2012":10187,"dem":10188,"12":10189,"por":10190,"he":10191,"su":10192,"si":10193,"som":10194,"from":10195,"2014":10196,"it":10197,"2015":10198,"2007":10199,"20":10200,"species":10201,"pa":10202,"that":10203,"earth":10204,"im":10205,"##na":10206,"een":10207,"##an":10208,"ja":10209,"han":10210,"##ta":10211,"2016":10212,"...":10213,"dan":10214,"2009":10215,"das":10216,"15":10217,"##te":10218,"ni":10219,"##ne":10220,"ug":10221,"va":10222,"isbn":10223,"2008":10224,"30":10225,"##\u0435":10226,"24":10227,"world":10228,"2013":10229,"om":10230,"2006":10231,"18":10232,"als":10233,"mit":10234,"his":10235,"##\u0443":10236,"ka":10237,"te":10238,"para":10239,"ha":10240,"com":10241,"\u0437\u0430":10242,"##h":10243,"\u0641\u064a":10244,"como":10245,"new":10246,"##re":10247,"data":10248,"une":10249,"##da":10250,"##g":10251,"em":10252,"os":10253,"observations":10254,"14":10255,"16":10256,"au":10257,"##us":10258,"21":10259,"##\u043c":10260,"##c":10261,"##in":10262,"par":10263,"13":10264,"las":10265,"\u062f\u0631":10266,"panoramas":10267,"viewfinder":10268,"palibot":10269,"gikan":10270,"sie":10271,"dans":10272,"##on":10273,"det":10274,"##ni":10275,"2005":10276,"##ch":10277,"##ia":10278,"nasod":10279,"25":10280,"##ra":10281,"##de":10282,"che":10283,"19":10284,"##ing":10285,"\u0458\u0435":10286,"life":10287,"17":10288,"son":10289,"yang":10290,"\u043f\u043e":10291,"000":10292,"az":10293,"2017":10294,"##ja":10295,"2004":10296,"so":10297,"geonames":10298,"ein":10299,"##\u043d":10300,"##le":10301,"2001":10302,"til":10303,"22":10304,"op":10305,"\u0441\u0435":10306,"od":10307,"nel":10308,"2002":10309,"##is":10310,"##z":10311,"ve":10312,"war":10313,"##\u06cc":10314,"milimetro":10315,"um":10316,"ne":10317,"wurde":10318,"26":10319,"are":10320,"mas":10321,"della":10322,"over":10323,"28":10324,"fur":10325,"database":10326,"##os":10327,"##\u044b":10328,"##no":10329,"##ti":10330,"zu":10331,"\u0645\u0646":10332,"september":10333,"var":10334,"##la":10335,"23":10336,"##et":10337,"catalogue":10338,"ist":10339,"2003":10340,"updated":10341,"were":10342,"pour":10343,"sur":10344,"am":10345,"be":10346,"har":10347,"co":10348,"##\u0456":10349,"auf":10350,"##do":10351,"##se":10352,"##\u043e":10353,"za":10354,"org":10355,"\u0434\u043e":10356,"\u05e9\u05dc":10357,"##ka":10358,"which":10359,"\u043e\u0442":10360,"eine":10361,"or":10362,"1999":10363,"\u0628\u0647":10364,"ii":10365,"##to":10366,"all":10367,"##nt":10368,"\u0433\u043e\u0434\u0430":10369,"##ar":10370,"bulan":10371,"this":10372,"##p":10373,"mga":10374,"##va":10375,"##\u0442\u0430":10376,"27":10377,"##je":10378,"qui":10379,"##ma":10380,"mot":10381,"\u03c4\u03bf\u03c5":10382,"##\u0627":10383,"\u03ba\u03b1\u03b9":10384,"kasarangang":10385,"##\u0442":10386,"lo":10387,"film":10388,"mm":10389,"##ed":10390,"ou":10391,"##\u043e\u043c":10392,"kilometro":10393,"1998":10394,"##\u0445":10395,"\u043d\u0435":10396,"29":10397,"also":10398,"one":10399,"##\u0629":10400,"##\u044f":10401,"##ca":10402,"first":10403,"post":10404,"entre":10405,"finns":10406,"had":10407,"##li":10408,"sich":10409,"ny":10410,"##\u0647":10411,"06":10412,"bahin":10413,"\u0438\u0437":10414,"po":10415,"##as":10416,"##b":10417,"san":10418,"uk":10419,"era":10420,"##ce":10421,"##ng":10422,"nam":10423,"ed":10424,"##ri":10425,"dos":10426,"\u0627\u0632":10427,"##j":10428,"ur":10429,"eta":10430,"may":10431,"\u0432\u043e":10432,"roku":10433,"##v":10434,"university":10435,"##\u043d\u0430":10436,"1996":10437,"has":10438,"nach":10439,"trakten":10440,"history":10441,"enero":10442,"dari":10443,"rainfall":10444,"100":10445,"1997":10446,"ulan":10447,"\u0434\u0430":10448,"checklist":10449,"km\u00b2":10450,"nahimutang":10451,"red":10452,"##ie":10453,"01":10454,"31":10455,"met":10456,"##ko":10457,"\u03c4\u03bf":10458,"##si":10459,"runt":10460,"voor":10461,"##sa":10462,"itis":10463,"foi":10464,"album":10465,"non":10466,"cc":10467,"\u043e\u0434":10468,"john":10469,"aus":10470,"mexico":10471,"system":10472,"1633":10473,"1990":10474,"##\u043e\u0432":10475,"##al":10476,"uma":10477,"bei":10478,"download":10479,"orrell":10480,"##f":10481,"annual":10482,"her":10483,"##\u05d9\u05dd":10484,"classification":10485,"set":10486,"their":10487,"who":10488,"##\u05d4":10489,"1995":10490,"its":10491,"trong":10492,"1994":10493,"este":10494,"fra":10495,"bug":10496,"not":10497,"dei":10498,"##ke":10499,"cua":10500,"algoritmo":10501,"but":10502,"##ment":10503,"reading":10504,"1991":10505,"##\u043a":10506,"ma":10507,"anaa":10508,"population":10509,"dinhi":10510,"bis":10511,"kirk":10512,"af":10513,"ze":10514,"after":10515,"avec":10516,"##it":10517,"1992":10518,"auch":10519,"2018":10520,"##\u064a":10521,"1993":10522,"##ki":10523,"bourgoin":10524,"me":10525,"yn":10526,"bailly":10527,"roskov":10528,"baillargeon":10529,"paglinawan":10530,"50":10531,"##ci":10532,"under":10533,"index":10534,"\u0434\u043b\u044f":10535,"two":10536,"##em":10537,"kasadpan":10538,"dat":10539,"gitas":10540,"##\u05d5":10541,"ser":10542,"pada":10543,"ir":10544,"familia":10545,"ta":10546,"##ga":10547,"alla":10548,"\u03c4\u03b7\u03c2":10549,"##\u043c\u0438":10550,"national":10551,"##at":10552,"##um":10553,"\u0111uoc":10554,"##mi":10555,"\u0442\u0430":10556,"mais":10557,"##\u062a":10558,"sua":10559,"york":10560,"www":10561,"men":10562,"##ly":10563,"man":10564,"fue":10565,"ulohan":10566,"door":10567,"\u3057\u305f":10568,"##\u03c2":10569,"manaden":10570,"##\u043b":10571,"she":10572,"time":10573,"have":10574,"city":10575,"##\u110b\u1174":10576,"kalkulado":10577,"they":10578,"##ba":10579,"##\u0441":10580,"##\u043a\u0430":10581,"\u0433\u043e\u0434\u0443":10582,"\u06a9\u0647":10583,"##\u0440":10584,"##ur":10585,"land":10586,"doi":10587,"nederbord":10588,"\u05d0\u05ea":10589,"ligger":10590,"meter":10591,"##ge":10592,"ya":10593,"##\u05d9":10594,"1989":10595,"##\u05ea":10596,"mai":10597,"##ve":10598,"##\u064a\u0629":10599,"american":10600,"##za":10601,"esta":10602,"fran":10603,"dia":10604,"klima":10605,"40":10606,"##st":10607,"plus":10608,"##\u110b\u1166":10609,"bir":10610,"uit":10611,"habagatan":10612,"\u0627\u0646":10613,"1980":10614,"##\u0627\u062a":10615,"ho":10616,"parte":10617,"press":10618,"general":10619,"ao":10620,"din":10621,"##ndo":10622,"zijn":10623,"##el":10624,"##io":10625,"\u0441\u0443":10626,"amb":10627,"amihanan":10628,"##man":10629,"ce":10630,"zum":10631,"1988":10632,"ibabaw":10633,"##\u0432":10634,"http":10635,"april":10636,"loai":10637,"november":10638,"##ro":10639,"##\u044e":10640,"els":10641,"saint":10642,"ini":10643,"mao":10644,"\u0627\u0633\u062a":10645,"02":10646,"serie":10647,"\u0639\u0644\u0649":10648,"part":10649,"##w":10650,"yuta":10651,"state":10652,"\u3059\u308b":10653,"\u05e2\u05dc":10654,"giiniton":10655,"hij":10656,"dell":10657,"##ny":10658,"kinabugnawan":10659,"kinainitan":10660,"##x":10661,"been":10662,"county":10663,"1986":10664,"werd":10665,"school":10666,"1987":10667,"international":10668,"1985":10669,"metros":10670,"genus":10671,"978":10672,"einer":10673,"seu":10674,"other":10675,"nicolson":10676,"sidlakan":10677,"ca":10678,"qu":10679,"1984":10680,"united":10681,"club":10682,"##den":10683,"05":10684,"sulod":10685,"##ul":10686,"##lo":10687,"##me":10688,"tu":10689,"##\u0441\u044f":10690,"##mente":10691,"##\u05d5\u05ea":10692,"dalam":10693,"ett":10694,"come":10695,"1970":10696,"##\u0646":10697,"##ju":10698,"ouvrard":10699,"up":10700,"bisby":10701,"##ten":10702,"ngan":10703,"when":10704,"werden":10705,"mer":10706,"cu":10707,"mission":10708,"##ya":10709,"07":10710,"##\u306e":10711,"tot":10712,"model":10713,"estado":10714,"oli":10715,"retrieved":10716,"04":10717,"paris":10718,"\u03c4\u03b7\u03bd":10719,"##\u0645":10720,"michael":10721,"dengan":10722,"august":10723,"sciences":10724,"elle":10725,"##\u043b\u0430":10726,"##\u062f":10727,"##ung":10728,"iii":10729,"durch":10730,"\u0627\u06cc\u0646":10731,"##ze":10732,"1982":10733,"1983":10734,"sont":10735,"##\u043a\u0438":10736,"1981":10737,"##\u0456\u0432":10738,"##ji":10739,"##\u0442\u0435":10740,"\u0431\u044b\u043b":10741,"sin":10742,"can":10743,"##\u0131":10744,"##ek":10745,"jako":10746,"##ku":10747,"dagat":10748,"1975":10749,"month":10750,"sobre":10751,"##\u043d\u0438":10752,"##nya":10753,"tropical":10754,"500":10755,"1945":10756,"france":10757,"##\u043d\u043e":10758,"juli":10759,"zur":10760,"dal":10761,"1979":10762,"us":10763,"digital":10764,"into":10765,"1972":10766,"ingar":10767,"there":10768,"##\u0631":10769,"during":10770,"ben":10771,"more":10772,"\u03b1\u03c0\u03bf":10773,"##or":10774,"till":10775,"##\u043d\u0435":10776,"##di":10777,"dunay":10778,"william":10779,"60":10780,"pag":10781,"1978":10782,"1968":10783,"delen":10784,"##om":10785,"\u06a9\u06d2":10786,"##ak":10787,"cac":10788,"1960":10789,"aan":10790,"pero":10791,"1976":10792,"area":10793,"map":10794,"pas":10795,"maria":10796,"##\u0647\u0627":10797,"##\u043b\u0438":10798,"##ban":10799,"##ow":10800,"nicht":10801,"v\u0259":10802,"ble":10803,"nay":10804,"##co":10805,"december":10806,"nella":10807,"south":10808,"##kan":10809,"monitoring":10810,"1977":10811,"\u0440\u043e\u043a\u0443":10812,"1974":10813,"200":10814,"1973":10815,"ad":10816,"year":10817,"##go":10818,"##ho":10819,"team":10820,"states":10821,"ng":10822,"nord":10823,"##\u0940":10824,"tuig":10825,"park":10826,"tv":10827,"usa":10828,"##lar":10829,"matag":10830,"1971":10831,"trmm":10832,"kinabasaan":10833,"kinaugahan":10834,"##2":10835,"st":10836,"mo":10837,"music":10838,"iz":10839,"aux":10840,"climate":10841,"\u043f\u0440\u0438":10842,"oder":10843,"later":10844,"##\u304b":10845,"\u03bc\u03b5":10846,"einem":10847,"genomsnittlig":10848,"nan":10849,"anos":10850,"durante":10851,"untuk":10852,"nahilalakip":10853,"kahaboga":10854,"you":10855,"\u0631\u0627":10856,"region":10857,"sind":10858,"uber":10859,"tres":10860,"landet":10861,"08":10862,"bi":10863,"ginkuha":10864,"havet":10865,"\u0925\u0935":10866,"jean":10867,"years":10868,"dels":10869,"##ts":10870,"out":10871,"##\u0627\u0646":10872,"north":10873,"##1":10874,"due":10875,"ei":10876,"sus":10877,"paul":10878,"suba":10879,"anvandare":10880,"algoritmen":10881,"algoritmer":10882,"1969":10883,"lsjbot":10884,"att":10885,"hojduppgifter":10886,"\u0447\u0442\u043e":10887,"wird":10888,"most":10889,"32":10890,"uska":10891,"##ler":10892,"1644":10893,"adalah":10894,"##\u0432\u0430":10895,"35":10896,"ziren":10897,"\u043a\u043c":10898,"cover":10899,"ki":10900,"art":10901,"only":10902,"koppen":10903,"david":10904,"geiger":10905,"peel":10906,"1967":10907,"##\u0442\u043e":10908,"hess":10909,"quan":10910,"##ha":10911,"london":10912,"lake":10913,"09":10914,"hini":10915,"three":10916,"80":10917,"robert":10918,"03":10919,"bu":10920,"lui":10921,"##ren":10922,"fan":10923,"finlayson":10924,"hulyo":10925,"hydrology":10926,"5194":10927,"gikuha":10928,"1950":10929,"januari":10930,"45":10931,"west":10932,"##ns":10933,"vi":10934,"about":10935,"##\u0434":10936,"65":10937,"elevation":10938,"agosto":10939,"voi":10940,"1962":10941,"1944":10942,"delle":10943,"\u0915\u0940":10944,"band":10945,"##\u110b\u1173\u11af":10946,"version":10947,"than":10948,"##\u093e":10949,"1965":10950,"ete":10951,"##ir":10952,"ye":10953,"river":10954,"alle":10955,"subspecies":10956,"\u0441\u0430":10957,"godine":10958,"##3":10959,"final":10960,"fu":10961,"\u043e\u043d":10962,"\u0435\u0433\u043e":10963,"familjen":10964,"oktober":10965,"1966":10966,"\u0627\u0644\u0649":10967,"juni":10968,"1964":10969,"some":10970,"\u0449\u043e":10971,"ban":10972,"##cio":10973,"\u06c1\u06d2":10974,"##\u0644":10975,"##sen":10976,"ngc":10977,"##sta":10978,"##\u044c":10979,"jest":10980,"second":10981,"where":10982,"kada":10983,"lalawigan":10984,"##cion":10985,"between":10986,"familie":10987,"song":10988,"inga":10989,"##jo":10990,"ginhulagway":10991,"##lla":10992,"nu":10993,"tai":10994,"##0":10995,"1961":10996,"\u10d3\u10d0":10997,"##tu":10998,"##nu":10999,"\u043a\u0430\u043a":11000,"kan":11001,"league":11002,"series":11003,"einen":11004,"wie":11005,"piu":11006,"\u0438\u043b\u0438":11007,"would":11008,"ke":11009,"ses":11010,"##\u05dd":11011,"1941":11012,"washington":11013,"waray":11014,"huvudstaden":11015,"grand":11016,"##ik":11017,"nakalista":11018,"mes":11019,"sumala":11020,"1940":11021,"asteroid":11022,"300":11023,"##\u0647\u0627\u06cc":11024,"##\u0c32":11025,"1939":11026,"##\u043f":11027,"##des":11028,"90":11029,"1963":11030,"grande":11031,"##ria":11032,"james":11033,"70":11034,"framraknat":11035,"400":11036,"\u304b\u3089":11037,"##wa":11038,"sono":11039,"kay":11040,"\u0441\u043e":11041,"\u0111o":11042,"comme":11043,"##be":11044,"\u0628\u0627":11045,"rehiyon":11046,"peter":11047,"##ter":11048,"charles":11049,"made":11050,"hans":11051,"rio":11052,"high":11053,"ved":11054,"##ou":11055,"##\u0434\u0430":11056,"slaktet":11057,"\u0645\u06cc\u06ba":11058,"##\u0928":11059,"him":11060,"pro":11061,"company":11062,"tahun":11063,"##am":11064,"##\u043c\u0430":11065,"millimeter":11066,"anche":11067,"##ine":11068,"group":11069,"division":11070,"eller":11071,"kallaste":11072,"kwadrado":11073,"##ky":11074,"##tes":11075,"varmaste":11076,"arsmedeltemperaturen":11077,"blev":11078,"medeltemperaturen":11079,"beskrevs":11080,"deux":11081,"##rs":11082,"density":11083,"##\u1102\u1167\u11ab":11084,"bronnen":11085,"vun":11086,"george":11087,"ab":11088,"##\u0568":11089,"##\u0433":11090,"district":11091,"##ben":11092,"\u0627\u0648":11093,"##ske":11094,"##\u0442\u0438":11095,"ano":11096,"underarter":11097,"forma":11098,"1958":11099,"33":11100,"##tion":11101,"##ski":11102,"estados":11103,"\u0111au":11104,"\u3055\u308c\u305f":11105,"vom":11106,"nguoi":11107,"wurden":11108,"\u0433\u043e\u0434\u0438\u043d\u0435":11109,"noten":11110,"day":11111,"##\u110b\u1175":11112,"modis":11113,"##\u0435\u043d":11114,"##cao":11115,"referenties":11116,"bo":11117,"hapit":11118,"nie":11119,"then":11120,"gran":11121,"##ers":11122,"##ov":11123,"##4":11124,"place":11125,"1956":11126,"nalukop":11127,"##un":11128,"##ina":11129,"ook":11130,"dapit":11131,"sao":11132,"tour":11133,"long":11134,"\u0111a":11135,"##\u0440\u0430":11136,"1959":11137,"listade":11138,"34":11139,"air":11140,"##\u0433\u043e":11141,"\u0914\u0930":11142,"tien":11143,"cette":11144,"genomsnitt":11145,"best":11146,"america":11147,"przez":11148,"1943":11149,"torraste":11150,"arsnederbord":11151,"regnigaste":11152,"my":11153,"36":11154,"sebagai":11155,"##ssa":11156,"love":11157,"gli":11158,"sud":11159,"##ry":11160,"born":11161,"li":11162,"##\u043e\u0442":11163,"unter":11164,"such":11165,"india":11166,"invanare":11167,"union":11168,"##gi":11169,"kvadratkilometer":11170,"\u0c28\u0c41\u0c02\u0c21":11171,"1948":11172,"used":11173,"solo":11174,"##\u0142":11175,"##ste":11176,"house":11177,"pe":11178,"##\u0628":11179,"##zi":11180,"1942":11181,"##\u043d\u044b\u0445":11182,"##ic":11183,"##que":11184,"1957":11185,"radius":11186,"##ska":11187,"central":11188,"nahimutangan":11189,"hoc":11190,"radio":11191,"##\u1102\u1173\u11ab":11192,"hat":11193,"##rt":11194,"lungsod":11195,"1930":11196,"known":11197,"1920":11198,"##il":11199,"ci":11200,"ten":11201,"rock":11202,"tanan":11203,"1954":11204,"dhe":11205,"##\u0633":11206,"gihabogon":11207,"kinahabogang":11208,"##land":11209,"##ion":11210,"\u0430\u043d\u0433\u043b":11211,"unidos":11212,"seine":11213,"family":11214,"berlin":11215,"##\u05df":11216,"museum":11217,"##ot":11218,"00":11219,"dass":11220,"name":11221,"while":11222,"##nte":11223,"tawo":11224,"guerra":11225,"bat":11226,"people":11227,"pakigbingkil":11228,"will":11229,"sedac":11230,"##\u094b":11231,"society":11232,"\u03c4\u03bf\u03bd":11233,"tra":11234,"martin":11235,"ko":11236,"average":11237,"##\u0648":11238,"vor":11239,"base":11240,"##dos":11241,"1946":11242,"##ok":11243,"\u03bd\u03b1":11244,"naam":11245,"##mo":11246,"##\u0441\u043a\u043e\u0438":11247,"##ig":11248,"college":11249,"president":11250,"##ista":11251,"1955":11252,"##nia":11253,"\u3066\u3042\u308b":11254,"##ita":11255,"iv":11256,"santa":11257,"care":11258,"##vo":11259,"many":11260,"##\u043d\u043e\u0433\u043e":11261,"1938":11262,"\u0915\u093e":11263,"\u06a9\u06cc":11264,"thomas":11265,"pod":11266,"lan":11267,"cho":11268,"these":11269,"1953":11270,"zen":11271,"##ton":11272,"dit":11273,"##ut":11274,"nacional":11275,"##\u09b0":11276,"bij":11277,"##ii":11278,"ai":11279,"##res":11280,"july":11281,"1949":11282,"1918":11283,"through":11284,"information":11285,"season":11286,"1952":11287,"egy":11288,"british":11289,"kao":11290,"point":11291,"\u05d4\u05d5\u05d0":11292,"merupakan":11293,"hoa":11294,"##\u05e8":11295,"##id":11296,"##\u0576":11297,"##zione":11298,"\u043d\u043e":11299,"##les":11300,"##5":11301,"\u0432\u0456\u0434":11302,"##\u0438\u0438":11303,"single":11304,"ile":11305,"richard":11306,"oxford":11307,"44":11308,"canada":11309,"via":11310,"##\u043d\u043e\u0438":11311,"we":11312,"##das":11313,"oleh":11314,"\u06cc\u06a9":11315,"1947":11316,"##nie":11317,"any":11318,"##ica":11319,"##\u0448":11320,"\u043f\u043e\u0441\u043b\u0435":11321,"1936":11322,"age":11323,"march":11324,"##6":11325,"\u0111ong":11326,"well":11327,"desde":11328,"##che":11329,"38":11330,"##\u043d\u0456":11331,"june":11332,"thanh":11333,"inom":11334,"go":11335,"game":11336,"mar":11337,"bien":11338,"\u3068\u3057\u3066":11339,"metro":11340,"prima":11341,"cm":11342,"live":11343,"east":11344,"##ken":11345,"##\u0441\u043a\u043e\u0433\u043e":11346,"public":11347,"ning":11348,"\u03c0\u03bf\u03c5":11349,"\u306b\u306f":11350,"##nen":11351,"being":11352,"##ea":11353,"##\u0924":11354,"##iu":11355,"sau":11356,"apres":11357,"records":11358,"them":11359,"noch":11360,"\u03c3\u03c4\u03b7\u03bd":11361,"mars":11362,"niini":11363,"before":11364,"became":11365,"1937":11366,"37":11367,"soort":11368,"\u03c4\u03c9\u03bd":11369,"pp":11370,"including":11371,"##\u043a\u0443":11372,"nao":11373,"\u04bb\u04d9\u043c":11374,"##\u110b\u1173\u11ab":11375,"##\u1100\u1161":11376,"creek":11377,"##ol":11378,"video":11379,"village":11380,"##gen":11381,"tambien":11382,"original":11383,"\u090f\u0915":11384,"waren":11385,"sein":11386,"##\u064a\u0646":11387,"##berg":11388,"provincia":11389,"1951":11390,"show":11391,"##\u056b":11392,"indonesia":11393,"europa":11394,"number":11395,"koji":11396,"top":11397,"cerro":11398,"vol":11399,"jose":11400,"##cia":11401,"home":11402,"fa":11403,"social":11404,"##\u0433\u0430":11405,"##ty":11406,"dr":11407,"##nd":11408,"island":11409,"total":11410,"october":11411,"jahr":11412,"ut":11413,"##vi":11414,"oraz":11415,"service":11416,"##\u0430\u043d":11417,"black":11418,"\u0433\u043e\u0434\u0438\u043d\u0430":11419,"football":11420,"end":11421,"both":11422,"against":11423,"star":11424,"eerst":11425,"##\u1105\u1169":11426,"cung":11427,"##ner":11428,"\u0442\u0430\u043a\u0436\u0435":11429,"award":11430,"hadton":11431,"##\u043e\u0438":11432,"station":11433,"##th":11434,"ali":11435,"\u043d\u0430\u0441\u0435\u0459\u0435":11436,"42":11437,"list":11438,"nhung":11439,"##\u043d\u044b\u0438":11440,"won":11441,"populasyon":11442,"four":11443,"##7":11444,"stato":11445,"uno":11446,"1933":11447,"##he":11448,"re":11449,"nur":11450,"\u044f\u043a":11451,"thang":11452,"january":11453,"##nes":11454,"##lle":11455,"media":11456,"census":11457,"roman":11458,"##ning":11459,"ex":11460,"densidad":11461,"sebuah":11462,"hi":11463,"64":11464,"##\u3092":11465,"##ada":11466,"local":11467,"##\u0932":11468,"##\u0648\u0646":11469,"48":11470,"times":11471,"italia":11472,"center":11473,"\u03c3\u03b5":11474,"1935":11475,"fost":11476,"\u0565\u0576":11477,"##\u06c1":11478,"king":11479,"##\u09c7":11480,"open":11481,"39":11482,"\u0915\u094b":11483,"\u043f\u043e\u0434":11484,"modern":11485,"1934":11486,"##\u043d\u044b\u0435":11487,"##\u306b":11488,"\u0c09\u0c28\u0c28\u0c2f":11489,"\u03c3\u03c4\u03bf":11490,"festival":11491,"\u0633\u0627\u0644":11492,"\u03b3\u03b9\u03b1":11493,"\u0434\u0435":11494,"1919":11495,"andre":11496,"work":11497,"pay":11498,"nos":11499,"since":11500,"seit":11501,"sakop":11502,"vuonna":11503,"##\u05dc":11504,"##\u0441\u043a\u0438\u0438":11505,"sidlakang":11506,"##\u10e1":11507,"##\u0c28":11508,"kilometer":11509,"suo":11510,"##ado":11511,"nombre":11512,"##so":11513,"\u043f\u0440\u0435\u0437":11514,"1914":11515,"century":11516,"dalla":11517,"##9":11518,"byl":11519,"sous":11520,"##au":11521,"##ble":11522,"what":11523,"amin":11524,"##nde":11525,"if":11526,"volt":11527,"\u3066\u306f":11528,"radie":11529,"don":11530,"like":11531,"##tt":11532,"fait":11533,"centre":11534,"louis":11535,"premier":11536,"##\u1112\u1161\u11ab":11537,"ale":11538,"##ant":11539,"41":11540,"##vat":11541,"nom":11542,"dopo":11543,"##8":11544,"1932":11545,"1929":11546,"\u305d\u306e":11547,"##ida":11548,"ubos":11549,"nem":11550,"##\u0930":11551,"##ll":11552,"lac":11553,"hasta":11554,"tre":11555,"commune":11556,"43":11557,"55":11558,"1928":11559,"##zo":11560,"##q":11561,"major":11562,"espesye":11563,"hogy":11564,"real":11565,"##lt":11566,"##lu":11567,"casa":11568,"##\u0442\u044c":11569,"primer":11570,"kabanay":11571,"##\u306f":11572,"until":11573,"however":11574,"##cu":11575,"joseph":11576,"hun":11577,"##der":11578,"historia":11579,"\u03b5\u03b9\u03bd\u03b1\u03b9":11580,"chi":11581,"\u0627\u0648\u0631":11582,"##\u043d\u0438\u0445":11583,"##\u0441\u043a\u0438":11584,"line":11585,"cui":11586,"wa":11587,"1917":11588,"47":11589,"royal":11590,"600":11591,"gia":11592,"ont":11593,"government":11594,"##\u0259":11595,"##pa":11596,"##\u05d9\u05ea":11597,"1931":11598,"##pe":11599,"##tas":11600,"75":11601,"cup":11602,"##\u0632":11603,"##ent":11604,"##mento":11605,"abril":11606,"early":11607,"contra":11608,"ogsa":11609,"association":11610,"encyclopedia":11611,"ay":11612,"##len":11613,"vao":11614,"pri":11615,"naar":11616,"deze":11617,"\u0c09\u0c02\u0c26":11618,"##ite":11619,"\u03c4\u03b1":11620,"seiner":11621,"take":11622,"##are":11623,"komon":11624,"gilay":11625,"talagsaon":11626,"itandi":11627,"now":11628,"1924":11629,"town":11630,"\u0431\u044b\u043b\u0430":11631,"roce":11632,"##ist":11633,"\u05e2\u05dd":11634,"sowie":11635,"news":11636,"##\u0437":11637,"cong":11638,"worden":11639,"ing":11640,"##\u092f":11641,"##\u0446\u0430":11642,"##\u1105\u1173\u11af":11643,"gepubliceerd":11644,"\u043e\u0431\u043b\u0430\u0441\u0442\u0438":11645,"\u0436\u04d9\u043d\u0435":11646,"wetenschappelijke":11647,"##\u10d0":11648,"\u0639\u0627\u0645":11649,"1927":11650,"##\u3068":11651,"##du":11652,"california":11653,"\u0111e":11654,"##ad":11655,"\u3057\u3066":11656,"white":11657,"zwei":11658,"main":11659,"program":11660,"science":11661,"vid":11662,"thuc":11663,"sem":11664,"spesies":11665,"januar":11666,"gada":11667,"##nych":11668,"geldig":11669,"hill":11670,"niya":11671,"hall":11672,"\u0441\u0442\u0430\u043d\u043e\u0432\u043d\u0438\u043a\u0430":11673,"1922":11674,"1925":11675,"pierre":11676,"back":11677,"kahenera":11678,"1921":11679,"ia":11680,"power":11681,"1926":11682,"zeuden":11683,"sul":11684,"##ai":11685,"52":11686,"##\u043d\u0438\u0438":11687,"hatte":11688,"\u0433\u043e":11689,"##by":11690,"##\u0634":11691,"site":11692,"anni":11693,"sistema":11694,"##hi":11695,"##ger":11696,"meg":11697,"anno":11698,"kinadul":11699,"\u0440\u043e\u0446\u0456":11700,"primera":11701,"dakong":11702,"46":11703,"51":11704,"\u0111oi":11705,"last":11706,"china":11707,"gihulagway":11708,"jahre":11709,"##\u0ca6":11710,"released":11711,"aber":11712,"\u043a\u0445\u0443\u0437\u0430\u0445\u044c":11713,"same":11714,"1912":11715,"juga":11716,"wala":11717,"##\u30b9":11718,"##men":11719,"based":11720,"kingdom":11721,"\u0c17\u0c30\u0c2e\u0c02":11722,"called":11723,"\u110b\u1175\u11bb\u1103\u1161":11724,"##lich":11725,"sig":11726,"party":11727,"patag":11728,"##mu":11729,"1923":11730,"\u06a9\u0627":11731,"##ck":11732,"dar":11733,"seus":11734,"fc":11735,"partir":11736,"old":11737,"bagian":11738,"siak":11739,"february":11740,"##nik":11741,"ra":11742,"\u0442\u043e":11743,"karon":11744,"pagka":11745,"following":11746,"ga":11747,"nalista":11748,"##\u043d\u044b\u043c":11749,"ville":11750,"provinsen":11751,"\u043a\u04cf\u043e\u0448\u0442\u0430\u043d":11752,"natural":11753,"##ien":11754,"cd":11755,"meme":11756,"played":11757,"australia":11758,"journal":11759,"##zen":11760,"zosta\u0142":11761,"##\u043d\u044b":11762,"##ies":11763,"\u3057\u3066\u3044\u308b":11764,"49":11765,"nun":11766,"##ian":11767,"book":11768,"\u0431\u044b\u043b\u043e":11769,"italian":11770,"##ischen":11771,"diese":11772,"principal":11773,"rader":11774,"##\u0438\u044f":11775,"##\u043d\u0430\u044f":11776,"khoa":11777,"thu":11778,"##\u043b\u043e":11779,"tinh":11780,"##ert":11781,"several":11782,"\u0434\u0443":11783,"##\u0441\u0442":11784,"law":11785,"##\u110b\u1166\u1109\u1165":11786,"etre":11787,"zwischen":11788,"henry":11789,"1900":11790,"stanovnika":11791,"##ere":11792,"mi":11793,"800":11794,"1910":11795,"##son":11796,"ic":11797,"quando":11798,"##\u09a8":11799,"\u0c26\u0c42\u0c30\u0c02\u0c32":11800,"##ana":11801,"cap":11802,"young":11803,"lang":11804,"56":11805,"##\u0578\u0582\u0574":11806,"english":11807,"khong":11808,"church":11809,"dieser":11810,"see":11811,"##ach":11812,"antonio":11813,"1913":11814,"##\u0c41":11815,"\u03bf\u03b9":11816,"hon":11817,"##ire":11818,"nome":11819,"tri":11820,"vo":11821,"cada":11822,"##ron":11823,"##ische":11824,"##idae":11825,"naselje":11826,"##\u043a\u0435":11827,"culture":11828,"54":11829,"##\u11ab":11830,"premiere":11831,"kini":11832,"pentru":11833,"by\u0142":11834,"italy":11835,"bay":11836,"smith":11837,"great":11838,"khi":11839,"ikke":11840,"\u0432\u0440\u0435\u043c\u044f":11841,"jan":11842,"##\u043a\u043e":11843,"\u0627\u0633":11844,"efter":11845,"##ura":11846,"women":11847,"juan":11848,"##\u03b9":11849,"##\u0435\u0438":11850,"vez":11851,"net":11852,"niet":11853,"\u0431\u044b\u043b\u0438":11854,"numero":11855,"off":11856,"form":11857,"eines":11858,"##ru":11859,"enligt":11860,"\u0cae\u0ca4\u0ca4\u0cc1":11861,"insee":11862,"##\u0435\u0442":11863,"februari":11864,"research":11865,"director":11866,"nje":11867,"use":11868,"\u0434\u0430\u0440":11869,"opera":11870,"small":11871,"##\u0639":11872,"etait":11873,"terrangen":11874,"namngivna":11875,"former":11876,"degli":11877,"##\u06a9":11878,"##\u0641":11879,"##bi":11880,"wordt":11881,"habagatang":11882,"##\u3066":11883,"routledge":11884,"each":11885,"1915":11886,"madrid":11887,"nei":11888,"television":11889,"##\u09c7\u09b0":11890,"punto":11891,"role":11892,"pais":11893,"##ted":11894,"roma":11895,"bbc":11896,"cambridge":11897,"ngay":11898,"##\u0434\u044b":11899,"narheten":11900,"death":11901,"street":11902,"web":11903,"##\u043d\u0443":11904,"##ini":11905,"vat":11906,"fin":11907,"150":11908,"##ud":11909,"nova":11910,"##ata":11911,"ans":11912,"country":11913,"##sk":11914,"england":11915,"marie":11916,"water":11917,"\u0633\u06d2":11918,"izd":11919,"\u0627\u0644\u062a\u064a":11920,"\u0448\u0442\u043e":11921,"\u043a\u043e\u0434\u044b":11922,"play":11923,"member":11924,"road":11925,"leur":11926,"europe":11927,"\u0111en":11928,"maar":11929,"dont":11930,"##val":11931,"##rio":11932,"##\u0ca8":11933,"wat":11934,"record":11935,"etter":11936,"japan":11937,"hai":11938,"##ige":11939,"\u0648\u0627\u0642\u0639":11940,"53":11941,"jeho":11942,"##\u0440\u0438":11943,"depuis":11944,"##\u110b\u1173\u1105\u1169":11945,"bungtod":11946,"##im":11947,"nog":11948,"##rd":11949,"1911":11950,"regia":11951,"\u0a35\u0a3f\u0a1a":11952,"kasadpang":11953,"norte":11954,"marine":11955,"tom":11956,"84":11957,"\u0442\u0430\u043a":11958,"##\u043b\u0435":11959,"\u043a\u043b\u0438\u043c\u0430\u0442":11960,"production":11961,"##cht":11962,"myos":11963,"##dor":11964,"christian":11965,"vida":11966,"daniel":11967,"##ene":11968,"punkten":11969,"order":11970,"\u0639\u0646":11971,"\u0441\u0435\u043b\u043e":11972,"found":11973,"mei":11974,"little":11975,"##bo":11976,"pela":11977,"##nin":11978,"finale":11979,"atau":11980,"olan":11981,"mark":11982,"700":11983,"zona":11984,"pdf":11985,"debut":11986,"\u043f\u0440\u0435\u043c\u0430":11987,"##ley":11988,"1916":11989,"hogsta":11990,"58":11991,"prema":11992,"##tte":11993,"##\u043c\u0443":11994,"centro":11995,"augusti":11996,"francisco":11997,"kabungtoran":11998,"special":11999,"57":12000,"edition":12001,"ele":12002,"olarak":12003,"seva":12004,"##\u0bae":12005,"##ych":12006,"kunze":12007,"kg":12008,"##ks":12009,"\u03c4\u03b7":12010,"donde":12011,"utc":12012,"jo":12013,"tambem":12014,"\u044d\u0432\u043b\u0430":12015,"saison":12016,"tidak":12017,"\u0628\u0646":12018,"##\u043e\u043d":12019,"capital":12020,"pre":12021,"tan":12022,"wever":12023,"##ling":12024,"##\u06d2":12025,"culham":12026,"office":12027,"popular":12028,"side":12029,"##\u0915":12030,"1905":12031,"present":12032,"xa":12033,"ciudad":12034,"1908":12035,"##\u03c5":12036,"\u0645\u0639":12037,"cuando":12038,"##lar\u0131":12039,"##lik":12040,"musica":12041,"##\u0627\u0631":12042,"##\u043d\u0438\u043a":12043,"internet":12044,"sentro":12045,"\u0436\u0435":12046,"third":12047,"59":12048,"five":12049,"good":12050,"frank":12051,"games":12052,"fr":12053,"##sti":12054,"##ova":12055,"##ran":12056,"omgivningarna":12057,"\u3053\u306e":12058,"thi":12059,"nell":12060,"kondado":12061,"big":12062,"##\u0431":12063,"karl":12064,"1907":12065,"\u0628\u0631\u0627\u06cc":12066,"##\u09af":12067,"itu":12068,"thuoc":12069,"insecta":12070,"studio":12071,"fut":12072,"##chen":12073,"night":12074,"gegen":12075,"##\u0b95\u0bb3":12076,"development":12077,"project":12078,"plants":12079,"##era":12080,"##dae":12081,"stadt":12082,"februar":12083,"near":12084,"##ier":12085,"nr":12086,"online":12087,"##\u043e\u0432\u0430":12088,"##\u05d5\u05df":12089,"down":12090,"\u0628\u0639\u062f":12091,"province":12092,"jahren":12093,"##ej":12094,"##nda":12095,"around":12096,"phan":12097,"grupo":12098,"institute":12099,"ong":12100,"ky":12101,"xix":12102,"##ice":12103,"force":12104,"ainsi":12105,"##gan":12106,"berg":12107,"pelo":12108,"##\u0441\u0430":12109,"european":12110,"manga":12111,"french":12112,"\u03c4\u03bf\u03c5\u03c2":12113,"##\u0938":12114,"uz":12115,"eds":12116,"##\u0642":12117,"western":12118,"animalia":12119,"located":12120,"\u0634\u062f":12121,"eerste":12122,"##ven":12123,"six":12124,"just":12125,"\u043d\u0430\u043b\u0430\u0437\u0438":12126,"##tor":12127,"##\u0441\u044b":12128,"ersten":12129,"##ius":12130,"##\u05e1":12131,"noi":12132,"onder":12133,"##han":12134,"\u0628\u0648\u062f":12135,"german":12136,"andere":12137,"##nje":12138,"ces":12139,"way":12140,"\u307e\u305f":12141,"120":12142,"##lan":12143,"1906":12144,"nad":12145,"##\u0b95":12146,"\u0438\u043e\u0433\u043e":12147,"alors":12148,"held":12149,"jego":12150,"championship":12151,"mat":12152,"\u0647\u0648":12153,"\u0431\u0443\u043b\u043e":12154,"##\u0649":12155,"professor":12156,"1904":12157,"##\u00b0":12158,"story":12159,"1909":12160,"ili":12161,"another":12162,"adolah":12163,"##gu":12164,"##tus":12165,"large":12166,"began":12167,"##ee":12168,"##\u05d3":12169,"##\u0441\u043a\u0430\u044f":12170,"children":12171,"##zy":12172,"jr":12173,"left":12174,"because":12175,"army":12176,"##\u0446\u0438":12177,"\u0431\u0443\u0432":12178,"asi":12179,"arts":12180,"ac":12181,"pebrero":12182,"hunyo":12183,"telah":12184,"mae":12185,"havia":12186,"families":12187,"edward":12188,"\u0442\u043e\u043c":12189,"\u043a\u0430\u0442\u043e":12190,"\u0433\u043e\u0434":12191,"awards":12192,"autres":12193,"ingles":12194,"primo":12195,"##\u0458\u0430":12196,"##\u05d1":12197,"##\u09be":12198,"aussi":12199,"95":12200,"zeit":12201,"lee":12202,"novembre":12203,"##ux":12204,"didziulis":12205,"unha":12206,"##cy":12207,"decock":12208,"lors":12209,"abucay":12210,"##\u1100\u116a":12211,"control":12212,"##cie":12213,"named":12214,"##\u0446":12215,"\u0627\u06cc\u0631\u0627\u0646":12216,"##bu":12217,"far":12218,"\u092d\u093e\u0937\u093e":12219,"##ui":12220,"bang":12221,"trung":12222,"africa":12223,"85":12224,"bio":12225,"match":12226,"menjadi":12227,"sy":12228,"comuna":12229,"##\u0430\u043c\u0438":12230,"mayo":12231,"prix":12232,"##ei":12233,"##\u0441\u044c":12234,"dam":12235,"##\u0438\u043d":12236,"xx":12237,"services":12238,"##lor":12239,"liga":12240,"##ano":12241,"global":12242,"onde":12243,"sen":12244,"mu":12245,"\u043d\u0430\u0441\u0435\u043b\u0435\u043d\u0438\u044f":12246,"##\u0142a":12247,"desa":12248,"id":12249,"kom":12250,"alexander":12251,"62":12252,"##\u0434\u0435":12253,"##\u0cb0":12254,"##dan":12255,"ils":12256,"presidente":12257,"angeles":12258,"##ique":12259,"poblacion":12260,"##\u1103\u1161":12261,"building":12262,"mayor":12263,"##\u0131n":12264,"##\u1103\u1169":12265,"did":12266,"lugar":12267,"tim":12268,"##ker":12269,"field":12270,"##nak":12271,"##\u0446\u0456":12272,"banda":12273,"##ue":12274,"\u0438\u043e\u0433\u04cf\u0443":12275,"names":12276,"moi":12277,"super":12278,"reference":12279,"88":12280,"carlos":12281,"##tan":12282,"ez":12283,"tam":12284,"seg":12285,"##\u0441\u043a\u0430":12286,"bureau":12287,"bukid":12288,"plan":12289,"word":12290,"sto":12291,"simon":12292,"episode":12293,"72":12294,"lai":12295,"could":12296,"tempo":12297,"mort":12298,"disyembre":12299,"##\u1100\u1169":12300,"anna":12301,"\u05d1\u05e9\u05e0\u05ea":12302,"\u062f\u06d2":12303,"dla":12304,"##ting":12305,"a\u00f0":12306,"##\u0447":12307,"col":12308,"mountain":12309,"vu":12310,"##ato":12311,"##ua":12312,"\u0440\u0444":12313,"ba":12314,"education":12315,"\u043a\u043c\u00b2":12316,"court":12317,"\u044e\u043a\u044a\u0430":12318,"fire":12319,"\u098f\u09ac\u0982":12320,"built":12321,"##\u0c15":12322,"##ego":12323,"##ques":12324,"within":12325,"cerambycidae":12326,"egalement":12327,"habitants":12328,"##tar":12329,"\u0c17\u0c30\u0c2e\u0c02\u0c32":12330,"\u044d\u0442\u043e":12331,"##ija":12332,"250":12333,"\u092a\u0930":12334,"segundo":12335,"iki":12336,"##\u0648\u0631":12337,"said":12338,"##ls":12339,"type":12340,"##\u0446\u0438\u0438":12341,"despues":12342,"essere":12343,"drei":12344,"##tta":12345,"civil":12346,"##\u043e\u043a":12347,"jedoch":12348,"head":12349,"theatre":12350,"##we":12351,"tubig":12352,"##dir":12353,"##liche":12354,"position":12355,"\u0438\u0445":12356,"ket":12357,"ordo":12358,"francais":12359,"##jos":12360,"##zioni":12361,"##\u110b\u1175\u1103\u1161":12362,"books":12363,"partie":12364,"chinh":12365,"binon":12366,"ela":12367,"durant":12368,"brasil":12369,"lam":12370,"##mann":12371,"viene":12372,"ich":12373,"quoc":12374,"barcelona":12375,"86":12376,"##\u0434\u0438":12377,"##ville":12378,"##\u0561\u056f\u0561\u0576":12379,"iran":12380,"sea":12381,"##\u0baa":12382,"nhan":12383,"took":12384,"82":12385,"leta":12386,"nature":12387,"mentre":12388,"##\u0458\u0435":12389,"lanaw":12390,"segun":12391,"siecle":12392,"66":12393,"##\u05d9\u05d4":12394,"carl":12395,"along":12396,"##\u11af":12397,"\u110b\u1175":12398,"coleoptera":12399,"##ido":12400,"latach":12401,"##\u0441\u043a\u043e\u043c":12402,"volume":12403,"friedrich":12404,"##\u0442\u044b":12405,"department":12406,"wahrend":12407,"mary":12408,"##su":12409,"atlas":12410,"deutschen":12411,"oslo":12412,"1903":12413,"published":12414,"\u0440\u043e\u0441\u0441\u0438\u0438":12415,"adtong":12416,"##\u043d\u044b\u04a3":12417,"##\u05e0\u05d4":12418,"99":12419,"zo":12420,"let":12421,"diptera":12422,"##\u0576\u0565\u0580\u056b":12423,"tren":12424,"business":12425,"##\u30f3":12426,"million":12427,"bad":12428,"huvudsak":12429,"63":12430,"habitantes":12431,"\u05d4\u05d9\u05d4":12432,"mens":12433,"pado":12434,"##sch":12435,"##jen":12436,"\u0567\u0580":12437,"etwa":12438,"67":12439,"still":12440,"f\u00f8rste":12441,"blue":12442,"beim":12443,"joka":12444,"human":12445,"medyo":12446,"brown":12447,"##\u0441\u0442\u0438":12448,"\u067e\u0631":12449,"santiago":12450,"apan":12451,"\u062f\u0627\u0631\u062f":12452,"\u092f\u093e":12453,"##sche":12454,"\u3055\u308c":12455,"mal":12456,"council":12457,"##burg":12458,"##van":12459,"planet":12460,"1000":12461,"##d\u0259":12462,"members":12463,"##\u043b\u0456":12464,"\u06cc\u0627":12465,"anh":12466,"variansen":12467,"denne":12468,"questo":12469,"gamay":12470,"temps":12471,"\u0433\u0434\u0435":12472,"##\u05e9":12473,"famili":12474,"trois":12475,"\u03b7\u03c4\u03b1\u03bd":12476,"\u0447\u0435\u0440\u0435\u0437":12477,"##rat":12478,"\u043e\u0431":12479,"96":12480,"##ane":12481,"##\u0458":12482,"saluran":12483,"orang":12484,"car":12485,"plant":12486,"free":12487,"epoca":12488,"player":12489,"##ang":12490,"italiano":12491,"tem":12492,"1901":12493,"community":12494,"very":12495,"##\u05e7":12496,"##kin":12497,"61":12498,"terletak":12499,"##\u0915\u094b":12500,"federal":12501,"teil":12502,"nhat":12503,"##nim":12504,"puis":12505,"\u0432\u0441\u0435":12506,"dung":12507,"##\u1112\u1161\u1102\u1173\u11ab":12508,"mereka":12509,"piano":12510,"##ros":12511,"hadde":12512,"pel":12513,"pop":12514,"\u0436\u0430\u043d\u0430":12515,"##\u1109\u1165":12516,"diakses":12517,"costa":12518,"##ico":12519,"jones":12520,"81":12521,"kuh":12522,"nha":12523,"segunda":12524,"##ret":12525,"jack":12526,"97":12527,"##\u045a\u0435":12528,"##\u00f0":12529,"own":12530,"##ris":12531,"otros":12532,"dai":12533,"tym":12534,"green":12535,"regional":12536,"gan":12537,"##\u0441\u0442\u0432\u0430":12538,"##\u0430\u0442":12539,"\u0441\u0441\u0441\u0440":12540,"vers":12541,"\u0627\u06d2":12542,"\u05d4\u05d9\u05d0":12543,"\u0434\u0432\u0430":12544,"1902":12545,"98":12546,"##ove":12547,"how":12548,"luis":12549,"obra":12550,"##\u0454":12551,"received":12552,"pays":12553,"dort":12554,"ter":12555,"todos":12556,"68":12557,"sant":12558,"byla":12559,"##lichen":12560,"83":12561,"loro":12562,"\u3063\u305f":12563,"zich":12564,"##\u0627\u06cc":12565,"ihre":12566,"served":12567,"\u0643\u0627\u0646":12568,"bila":12569,"##\u0643":12570,"1890":12571,"##\u092e\u093e":12572,"##\u0c02":12573,"##ao":12574,"etc":12575,"##\u0435\u0440":12576,"##ye":12577,"metal":12578,"frances":12579,"mundo":12580,"\u3055\u308c\u3066\u3044\u308b":12581,"##pen":12582,"\u0442\u043e\u0433\u043e":12583,"##\u0c24":12584,"##\u0646\u062f":12585,"\u0435\u0435":12586,"nhu":12587,"chicago":12588,"studies":12589,"again":12590,"indian":12591,"##use":12592,"\u04bb\u044b\u0443":12593,"satu":12594,"\u0436\u0438\u0432\u0435\u043b\u043e":12595,"\u05dc\u05d0":12596,"departement":12597,"fou":12598,"##dy":12599,"mehr":12600,"##jas":12601,"texas":12602,"sam":12603,"fueron":12604,"##gt":12605,"76":12606,"heeft":12607,"pmid":12608,"\u0111ai":12609,"airport":12610,"##ima":12611,"kann":12612,"kam":12613,"marco":12614,"lat":12615,"##\u0cc1":12616,"design":12617,"hier":12618,"##\u05e3":12619,"marzo":12620,"nas":12621,"include":12622,"93":12623,"sonra":12624,"eu":12625,"qua":12626,"francia":12627,"meer":12628,"hien":12629,"\u043f\u0440\u043e":12630,"##\u0627\u0621":12631,"\u043d\u0430\u0441\u0435\u043b\u0435\u043d\u043d\u044f":12632,"##ade":12633,"amerika":12634,"late":12635,"led":12636,"78":12637,"bank":12638,"\u05d2\u05dd":12639,"academy":12640,"##\u0c30":12641,"##ile":12642,"fort":12643,"##nas":12644,"##ara":12645,"nalazi":12646,"##nym":12647,"##\u0caf":12648,"esis":12649,"##ise":12650,"##\u062d":12651,"important":12652,"\u043c\u0443":12653,"spater":12654,"kelas":12655,"##\u0aa8":12656,"espana":12657,"bao":12658,"periodo":12659,"\u0445\u0443\u044c\u043b\u0443":12660,"dall":12661,"92":12662,"universitat":12663,"##ari":12664,"wieder":12665,"tout":12666,"##nek":12667,"##rum":12668,"albert":12669,"##\u092e":12670,"those":12671,"##ure":12672,"sang":12673,"tak":12674,"stand":12675,"##\u05d8":12676,"died":12677,"jej":12678,"spring":12679,"##\u110b\u1175\u11ab":12680,"\u0645\u0627":12681,"\u043f\u0430":12682,"\u0442\u0430\u043a\u043e\u0436":12683,"##\u10e8\u10d8":12684,"vart":12685,"##tti":12686,"tiene":12687,"##\u0c32\u0c41":12688,"ktory":12689,"##\u0435\u043c":12690,"##one":12691,"todo":12692,"magyar":12693,"71":12694,"buvo":12695,"make":12696,"##ation":12697,"antes":12698,"website":12699,"case":12700,"\u0432\u0456\u043d":12701,"##ino":12702,"\u0432\u0430":12703,"##nja":12704,"##ity":12705,"##\u0c17":12706,"yr":12707,"\u043a\u0430\u043a\u043e":12708,"dette":12709,"engleski":12710,"73":12711,"taxonomic":12712,"\u0432\u0438\u0441\u0438\u043d\u0438":12713,"##nih":12714,"74":12715,"77":12716,"##\u043e\u044e":12717,"williams":12718,"##\u043b\u044c":12719,"\u0627\u06cc\u06a9":12720,"##uk":12721,"filum":12722,"musical":12723,"route":12724,"##nej":12725,"##\u0441\u044c\u043a\u043e\u0433\u043e":12726,"##\u1112\u1161\u1100\u1169":12727,"class":12728,"##\u0c95":12729,"port":12730,"contre":12731,"space":12732,"haar":12733,"asia":12734,"##\u043d\u0438\u044f":12735,"although":12736,"##leri":12737,"sido":12738,"\u043d\u0430\u0434\u043c\u043e\u0440\u0441\u043a\u043e\u0458":12739,"municipio":12740,"91":12741,"##\u0456\u0456":12742,"1898":12743,"pristupljeno":12744,"##ului":12745,"##cji":12746,"##\u110b\u116a":12747,"##ate":12748,"##lin":12749,"##\u0430\u0445":12750,"mis":12751,"hotel":12752,"\u0647\u064a":12753,"lost":12754,"annees":12755,"##\u11a8":12756,"\u043d\u0430\u0441\u0435\u0459\u0443":12757,"walter":12758,"##\u0441\u0442\u0432\u043e":12759,"##\u03b1":12760,"argentina":12761,"vier":12762,"economic":12763,"romania":12764,"magazine":12765,"##\u043e\u0433\u043e":12766,"arthropoda":12767,"##sten":12768,"\u0431\u0443\u0435\u043d\u0447\u0430":12769,"##\u0621":12770,"##\u1112\u1162\u11bb\u1103\u1161":12771,"premio":12772,"##\u043d\u0443\u044e":12773,"minister":12774,"69":12775,"dvd":12776,"political":12777,"##mer":12778,"\u043d\u0430\u0434":12779,"ti":12780,"##\u09bf":12781,"nueva":12782,"##\u0438\u0435":12783,"##lis":12784,"\u0431\u0430\u0441\u0441\u0435\u0438\u043d\u044b":12785,"avant":12786,"your":12787,"body":12788,"ottawa":12789,"##sky":12790,"arte":12791,"round":12792,"run":12793,"##\u043d\u043e\u043c":12794,"\u0447\u0430\u0441":12795,"lain":12796,"##\u0441\u043a\u0438\u0445":12797,"ako":12798,"##\u110c\u1175":12799,"##\u05d2":12800,"citta":12801,"87":12802,"\u043e\u0431\u043b\u0430\u0441\u0442\u0430\u043d":12803,"##lig":12804,"ara":12805,"900":12806,"##issa":12807,"\u05dc\u05d0\u05d7\u05e8":12808,"1897":12809,"sir":12810,"ate":12811,"\u03c3\u03c4\u03b7":12812,"cidade":12813,"especie":12814,"##ah":12815,"1896":12816,"##ver":12817,"even":12818,"points":12819,"\u3055\u308c\u308b":12820,"##ceae":12821,"##\u03bd":12822,"language":12823,"##\u0456\u044f":12824,"##\u0438\u0445":12825,"thompson":12826,"##ber":12827,"face":12828,"max":12829,"heute":12830,"sai":12831,"##ele":12832,"father":12833,"wikipedia":12834,"peut":12835,"volta":12836,"kun":12837,"act":12838,"1899":12839,"jsou":12840,"victoria":12841,"koja":12842,"\u0441\u0438":12843,"89":12844,"icin":12845,"villa":12846,"israel":12847,"eshte":12848,"among":12849,"different":12850,"full":12851,"marupokan":12852,"tambe":12853,"mr":12854,"latin":12855,"according":12856,"johann":12857,"jusqu":12858,"##iert":12859,"##\u0ba9":12860,"##\u0444":12861,"1895":12862,"##ena":12863,"##\u05e0\u05d9":12864,"ende":12865,"windows":12866,"importante":12867,"##\u05d7":12868,"tanggal":12869,"##zu":12870,"##\u062c":12871,"tenia":12872,"right":12873,"chung":12874,"##ito":12875,"##\u0921":12876,"article":12877,"next":12878,"seinen":12879,"\u0430\u043b\u0435":12880,"\u0bae\u0bb1\u0bb1\u0bc1\u0bae":12881,"jaar":12882,"##nom":12883,"##ksi":12884,"##\u0a3e":12885,"politica":12886,"caso":12887,"gold":12888,"days":12889,"##\u0458\u0443":12890,"title":12891,"\u0646\u06d2":12892,"review":12893,"##nti":12894,"chu":12895,"anys":12896,"##nce":12897,"monde":12898,"##ive":12899,"comune":12900,"wilhelm":12901,"\u0430\u0441\u0430":12902,"##bol":12903,"munisipyo":12904,"##nis":12905,"\u0a05\u0a24":12906,"taas":12907,"##og":12908,"tva":12909,"groupe":12910,"distrito":12911,"wo":12912,"store":12913,"\u043a\u0430\u043e":12914,"twee":12915,"\u0438\u043c\u0430":12916,"\u0634\u062f\u0647\u0627\u0633\u062a":12917,"\u0627\u0646\u06af\u0644\u06cc\u0633\u06cc":12918,"werner":12919,"##\u0442\u0443":12920,"##\u0438\u0442\u0435":12921,"fine":12922,"equipe":12923,"##sel":12924,"terra":12925,"seinem":12926,"##aan":12927,"dove":12928,"il\u0259":12929,"kayu":12930,"\u043f\u0456\u0434":12931,"##ms":12932,"iucn":12933,"\u0646\u0641\u0631":12934,"jak":12935,"##inen":12936,"##\u1112\u1161\u110b\u1167\u11bb\u1103\u1161":12937,"election":12938,"\u0925\u093e\u092f":12939,"##ais":12940,"bill":12941,"\u0431\u043e\u0438\u044b\u043d\u0448\u0430":12942,"##ys":12943,"##\u0561":12944,"##\u043d\u044f":12945,"##\u09b2":12946,"##ham":12947,"military":12948,"habia":12949,"\u0a85\u0aa8":12950,"##\u0435\u0432":12951,"southern":12952,"forces":12953,"##\u0436":12954,"ju":12955,"79":12956,"94":12957,"##\u10d8\u10e1":12958,"\u0ba8\u0bbe\u0bb3":12959,"##per":12960,"causa":12961,"##\u04d9":12962,"light":12963,"guerre":12964,"##coes":12965,"##mas":12966,"##ono":12967,"northern":12968,"\u0111inh":12969,"\u0434\u04d9\u04af\u043b\u04d9\u0442":12970,"australian":12971,"short":12972,"##ona":12973,"##\u0435\u043d\u0430":12974,"\u0434\u0440\u0436\u0430\u0432\u0438":12975,"bet":12976,"much":12977,"leon":12978,"min":12979,"agus":12980,"##age":12981,"collection":12982,"once":12983,"1889":12984,"mount":12985,"theo":12986,"##vu":12987,"\u0a26\u0a40":12988,"internacional":12989,"network":12990,"\u03c9\u03c2":12991,"tema":12992,"lu":12993,"\u062f\u06cc":12994,"tal":12995,"included":12996,"##wy":12997,"##\u0433\u0435":12998,"tanto":12999,"\u05d1\u05d9\u05df":13000,"venne":13001,"luc":13002,"\u044f\u043a\u0456":13003,"##sko":13004,"##\u044f\u0442":13005,"jacques":13006,"##ici":13007,"ari":13008,"html":13009,"periode":13010,"##sia":13011,"1880":13012,"##\u30eb":13013,"\u0430\u0431\u043e":13014,"dies":13015,"support":13016,"##pi":13017,"##\u0578\u057e":13018,"fel":13019,"suite":13020,"titre":13021,"##ore":13022,"copa":13023,"oster":13024,"lasang":13025,"##ras":13026,"izan":13027,"\u043e\u043f\u0448\u0442\u0438\u043d\u0438":13028,"sunt":13029,"##yn":13030,"\u09b9\u09af":13031,"110":13032,"mindre":13033,"grandes":13034,"\u0431\u0443\u043b\u0430":13035,"##\u093f\u0924":13036,"\u05d9\u05d3\u05d9":13037,"##vel":13038,"course":13039,"style":13040,"mundial":13041,"liegt":13042,"##\u091f":13043,"cultural":13044,"##\u11bc":13045,"bereits":13046,"##\u0bb0":13047,"aastal":13048,"\u0441\u0430\u0445\u044c\u0442\u0430\u043d":13049,"germany":13050,"hy":13051,"takze":13052,"plaats":13053,"level":13054,"hay":13055,"plusieurs":13056,"nelle":13057,"\u0443\u043a\u0440\u0430\u0456\u043d\u0438":13058,"lokal":13059,"##\u093f":13060,"official":13061,"pedro":13062,"sans":13063,"scott":13064,"##l\u0131":13065,"##\u05de\u05d4":13066,"##ds":13067,"register":13068,"##ium":13069,"\u043b\u0435\u0442":13070,"secondo":13071,"##\u06cc\u0646":13072,"fins":13073,"\u0569\u057e\u0561\u056f\u0561\u0576\u056b":13074,"portugal":13075,"films":13076,"##sse":13077,"truong":13078,"\u043f\u0456\u0441\u043b\u044f":13079,"##net":13080,"1870":13081,"board":13082,"tras":13083,"dezember":13084,"##\u043b\u044b":13085,"francois":13086,"ilk":13087,"##\u0434\u0456":13088,"\u0441\u0448\u0430":13089,"kabupaten":13090,"republica":13091,"municipal":13092,"\u0c2e\u0c30\u0c2f\u0c41":13093,"often":13094,"temporada":13095,"departamento":13096,"lieu":13097,"zuen":13098,"##\u044b\u043d":13099,"report":13100,"##lia":13101,"erste":13102,"dann":13103,"##\u0493\u0430":13104,"thoi":13105,"\u03c3\u03c4\u03b9\u03c2":13106,"##\u043d\u0434\u0430":13107,"quatre":13108,"ild\u0259":13109,"ray":13110,"vice":13111,"##ati":13112,"movie":13113,"date":13114,"partido":13115,"kanada":13116,"\u043a\u043e\u0458\u0438":13117,"juo":13118,"histoire":13119,"##\u0bc8":13120,"code":13121,"storre":13122,"##\u0441\u0442\u044c":13123,"adam":13124,"parti":13125,"bas":13126,"konnte":13127,"\u0628\u064a\u0646":13128,"poder":13129,"##\u1100\u1175":13130,"god":13131,"##kt":13132,"##\u043a\u0456":13133,"\u03c4\u03b9\u03c2":13134,"cual":13135,"using":13136,"\u0441\u0430\u0432\u0435\u0437\u043d\u043e\u0458":13137,"summer":13138,"puede":13139,"presente":13140,"\u0431\u0435\u0437":13141,"##\u0924\u093e":13142,"alan":13143,"works":13144,"standard":13145,"##\u0bb2":13146,"##\u044b\u0445":13147,"sport":13148,"instituto":13149,"eran":13150,"\u0627\u0645\u0631\u06cc\u06a9\u0627":13151,"nuoc":13152,"joe":13153,"construction":13154,"\u0441\u0430\u0445\u044c\u0442":13155,"##\u1d49":13156,"students":13157,"##let":13158,"career":13159,"vii":13160,"songs":13161,"sia":13162,"##\u092f\u093e":13163,"marz":13164,"\u0442\u0440\u0438":13165,"described":13166,"tersebut":13167,"get":13168,"##\u0578\u0582\u0569\u0575\u0561\u0576":13169,"period":13170,"minor":13171,"##ford":13172,"1886":13173,"\u0baa\u0bbe\u0bb0\u0ba4\u0ba4":13174,"front":13175,"nuo":13176,"scene":13177,"action":13178,"isang":13179,"kabukiran":13180,"##ide":13181,"viet":13182,"\u110b\u1167\u11a8":13183,"verlag":13184,"race":13185,"##tet":13186,"1885":13187,"\u056b\u0576":13188,"1894":13189,"vien":13190,"wilson":13191,"##\u0430\u043c":13192,"##ves":13193,"##isch":13194,"yo":13195,"##het":13196,"\u1109\u116e":13197,"##ira":13198,"zone":13199,"ovat":13200,"\u06a9\u0631\u062f":13201,"police":13202,"##mus":13203,"poi":13204,"deel":13205,"##\u05e0\u05d9\u05dd":13206,"monte":13207,"without":13208,"##chi":13209,"tro":13210,"koje":13211,"##\u1109\u1173":13212,"maj":13213,"areas":13214,"harry":13215,"##uri":13216,"##ges":13217,"battle":13218,"\u0438\u043d\u0434\u0435\u043a\u0441\u0430\u0448":13219,"material":13220,"deutsche":13221,"ham":13222,"\u043a\u043e\u0438\u0442\u043e":13223,"vaxer":13224,"\u03bc\u03b9\u03b1":13225,"##\u0995":13226,"##od":13227,"##kom":13228,"1893":13229,"##ft":13230,"eo":13231,"meyer":13232,"\u05d0\u05d5":13233,"\u0431\u043e\u043b\u0435\u0435":13234,"\u0c15\u0c02\u0c26\u0c30\u0c02":13235,"1892":13236,"tipo":13237,"sol":13238,"pagkainila":13239,"##fa":13240,"sub":13241,"1891":13242,"##ring":13243,"\u0569\u057e\u0561\u056f\u0561\u0576\u056b\u0576":13244,"qe":13245,"ultimo":13246,"\u0628\u0631":13247,"alto":13248,"qual":13249,"gemeente":13250,"##\u03c4\u03b1":13251,"##\u09a4":13252,"utan":13253,"hilabihan":13254,"##\u0446\u044c":13255,"##igen":13256,"\u043a\u043e\u0442\u043e\u0440\u044b\u0438":13257,"\u0431\u0443\u0438\u044b\u043d\u0441\u0430":13258,"##\u0627\u0644":13259,"##rn":13260,"\u0645\u06cc\u0634\u0648\u062f":13261,"##schen":13262,"##\u0576\u0565\u0580":13263,"##ungen":13264,"\u0634\u062f\u0647":13265,"sulla":13266,"ktora":13267,"##iva":13268,"##\u0cb2\u0cb2":13269,"avril":13270,"\u043c\u0435\u0436\u0434\u0443":13271,"##\u0c97\u0cb3\u0cc1":13272,"thuong":13273,"seka":13274,"\u0646\u0627\u0645":13275,"##\u0648\u06ba":13276,"roi":13277,"nakon":13278,"##\u0627\u0645":13279,"\u043c\u043e\u0436\u0435":13280,"miles":13281,"##\u043d\u043e\u0435":13282,"\u062e\u0648\u062f":13283,"##ani":13284,"ihm":13285,"##\u064a\u0627":13286,"\u0627\u0646\u06af\u0631\u06cc\u0632\u06cc":13287,"\u0447\u0435\u043b\u043e\u0432\u0435\u043a":13288,"columbia":13289,"deutschland":13290,"##\u0447\u0430":13291,"sempre":13292,"trade":13293,"labing":13294,"##\u043b\u0430\u0440":13295,"xviii":13296,"dien":13297,"centrala":13298,"library":13299,"##\u0d02":13300,"guide":13301,"\u043e\u043d\u0430":13302,"##bar":13303,"campo":13304,"beste":13305,"##las":13306,"\u043d\u0438\u0438\u0441\u0430":13307,"bestar":13308,"gant":13309,"manuel":13310,"kim":13311,"\u043f\u043e\u0434\u0430\u0446\u0438\u043c\u0430":13312,"##ong":13313,"\u0440\u0443\u0441\u0438\u044f":13314,"thong":13315,"moved":13316,"##\u0438\u044e":13317,"sitt":13318,"\u043b\u0435\u043b\u0430\u0448":13319,"##tos":13320,"##\u30c8":13321,"rang":13322,"130":13323,"1888":13324,"ktore":13325,"cao":13326,"##\u0561\u0575\u056b\u0576":13327,"\u0915\u093f\u092f\u093e":13328,"ihr":13329,"xvi":13330,"otto":13331,"nationale":13332,"prince":13333,"\u0431\u0443\u043b\u0438":13334,"aquest":13335,"##iem":13336,"hvor":13337,"##ens":13338,"aquesta":13339,"\u1102\u1173\u11ab":13340,"alta":13341,"##ende":13342,"f\u00f8dt":13343,"similar":13344,"vattendrag":13345,"##\u0441\u044c\u043a\u0438\u0438":13346,"health":13347,"##ala":13348,"##\u0627\u06ba":13349,"mare":13350,"\u062a\u0627":13351,"hoi":13352,"ag":13353,"##\u0c2f":13354,"kot":13355,"##able":13356,"##\u0448\u0430":13357,"nebula":13358,"empire":13359,"lord":13360,"master":13361,"never":13362,"##eg":13363,"jorden":13364,"hop":13365,"square":13366,"##\u03bf":13367,"##tic":13368,"jackson":13369,"selected":13370,"etats":13371,"tous":13372,"##uje":13373,"sports":13374,"##ese":13375,"##\u043d\u0430\u0442\u0430":13376,"##ser":13377,"##ete":13378,"php":13379,"rei":13380,"fino":13381,"\u0435\u043b\u0433\u0430":13382,"##\u0446\u044b":13383,"bol":13384,"vita":13385,"moze":13386,"chinese":13387,"fall":13388,"##\u0a40":13389,"iko":13390,"\u0627\u0644\u0630\u064a":13391,"hot":13392,"##\u043a\u043e\u0432":13393,"padre":13394,"geraadpleegd":13395,"arthur":13396,"management":13397,"\u0430\u0437":13398,"nara":13399,"##\u0a30":13400,"quebec":13401,"##\u043b\u044b\u049b":13402,"\u0639\u062f\u062f":13403,"##\u043d\u0438\u043c":13404,"lange":13405,"allen":13406,"##urs":13407,"##\u062f\u0647":13408,"bar":13409,"glesbefolkat":13410,"##\u0bc1\u0bae":13411,"afrika":13412,"##\u110b\u1165":13413,"\u0442\u043e\u0438":13414,"established":13415,"\u0906\u0939":13416,"##\u0a28":13417,"kumbang":13418,"file":13419,"\u044f\u0432\u043b\u044f\u0435\u0442\u0441\u044f":13420,"vaster":13421,"##aren":13422,"\u0442\u0435":13423,"\u043a\u043e\u0458\u0430":13424,"chile":13425,"##ula":13426,"##\u0446\u0435":13427,"selon":13428,"##\u0581":13429,"came":13430,"juin":13431,"daha":13432,"johnson":13433,"autor":13434,"##\u0576\u0565\u0580\u0568":13435,"nordvast":13436,"\u062c\u0648":13437,"##\u0565\u056c":13438,"##\u05e2":13439,"##rie":13440,"phat":13441,"##tis":13442,"ary":13443,"narmaste":13444,"##\u0561\u0576":13445,"chris":13446,"integrated":13447,"##\u0430\u043b":13448,"common":13449,"\u0645\u062d\u0645\u062f":13450,"\u0647\u0630\u0647":13451,"despres":13452,"\u043e\u0441\u0456\u0431":13453,"vum":13454,"hand":13455,"status":13456,"##sh":13457,"jazz":13458,"professional":13459,"half":13460,"##\u0447\u0435":13461,"ru":13462,"stone":13463,"gemeinde":13464,"\u0939\u094b":13465,"\u043e\u0434\u0438\u043d":13466,"punta":13467,"neu":13468,"motor":13469,"middle":13470,"eesti":13471,"##\u064a\u062f":13472,"nar":13473,"##yi":13474,"##ismo":13475,"\u0627\u06cc\u0646\u06af\u06cc\u0644\u06cc\u0633\u062c\u0647":13476,"various":13477,"##ps":13478,"agua":13479,"##rea":13480,"\u0c38\u0c2e\u0c2a":13481,"##ede":13482,"##\u0c1f":13483,"##l\u0259r":13484,"written":13485,"\u062f\u0627":13486,"dio":13487,"fois":13488,"1878":13489,"mismo":13490,"jesus":13491,"\u0932\u093f\u090f":13492,"##\u09c0":13493,"##nan":13494,"miejsce":13495,"##\u045a\u0430":13496,"questa":13497,"study":13498,"##\u1112\u1161\u110b\u1167":13499,"jakarta":13500,"mac":13501,"anti":13502,"##\u11b7":13503,"\u0648\u06cc":13504,"\u043c\u0435\u0441\u0442\u043e":13505,"marca":13506,"##s\u0131":13507,"maja":13508,"##ht":13509,"##nta":13510,"tuong":13511,"performance":13512,"##ff":13513,"##\u0142y":13514,"anderen":13515,"##\u0d24":13516,"##ern":13517,"##rna":13518,"structure":13519,"##\u0441\u044c\u043a\u043e\u0456":13520,"##eri":13521,"##nza":13522,"##ali":13523,"page":13524,"##ym":13525,"##\u0441\u0438":13526,"1883":13527,"##\u0441\u0435":13528,"forme":13529,"\u0438\u043c":13530,"track":13531,"hospital":13532,"fi":13533,"circa":13534,"vagy":13535,"\u0a26\u0a3e":13536,"##tik":13537,"##\u0446\u0438\u044f":13538,"1887":13539,"michel":13540,"##tra":13541,"##\u0493\u044b":13542,"medal":13543,"actor":13544,"munchen":13545,"##\u0433\u0438":13546,"##\u0437\u0430":13547,"tudi":13548,"mutta":13549,"valley":13550,"##\u1109\u1161":13551,"primeiro":13552,"janeiro":13553,"##jan":13554,"walog":13555,"kuperad":13556,"foram":13557,"chien":13558,"##\u093f\u0915":13559,"##\u0917":13560,"hang":13561,"oficial":13562,"ok":13563,"##bus":13564,"inc":13565,"making":13566,"##\u10d8":13567,"girl":13568,"papa":13569,"famille":13570,"ana":13571,"fler":13572,"etat":13573,"produced":13574,"##\u0448\u0438":13575,"haben":13576,"nouvelle":13577,"mike":13578,"vil":13579,"canal":13580,"##ster":13581,"platz":13582,"vie":13583,"##po":13584,"paulo":13585,"samhalle":13586,"##ket":13587,"##\u043d\u0438\u0435":13588,"sve":13589,"\u0639\u0644\u064a\u0647":13590,"y\u0131l\u0131nda":13591,"##los":13592,"liste":13593,"having":13594,"metres":13595,"kirche":13596,"\u06a9\u0648":13597,"eastern":13598,"dag":13599,"##ika":13600,"drama":13601,"##\u06ba":13602,"giovanni":13603,"dins":13604,"##dd":13605,"##\u044a\u0442":13606,"\u043e\u043d\u0438":13607,"norr":13608,"wikimedia":13609,"\u092d\u0940":13610,"##ix":13611,"heinrich":13612,"given":13613,"##cija":13614,"tussen":13615,"cross":13616,"married":13617,"\u0456\u0437":13618,"lebih":13619,"ultima":13620,"teams":13621,"seperti":13622,"living":13623,"##field":13624,"junto":13625,"philip":13626,"together":13627,"##cs":13628,"steve":13629,"sun":13630,"alt":13631,"elso":13632,"\u0c39\u0c15\u0c1f\u0c30\u0c32\u0c41":13633,"##\u0431\u0430":13634,"ktery":13635,"##\u0ac0":13636,"kapunawpunawan":13637,"bob":13638,"##\u3082":13639,"##tat":13640,"##ac":13641,"virginia":13642,"taylor":13643,"jos":13644,"heart":13645,"##\u0431\u0438":13646,"##sis":13647,"1860":13648,"##eni":13649,"##ag":13650,"policy":13651,"varios":13652,"muy":13653,"sadana":13654,"##ez":13655,"memiliki":13656,"aj":13657,"##ey":13658,"altri":13659,"morte":13660,"went":13661,"##hu":13662,"##n\u0131n":13663,"primeira":13664,"cinema":13665,"1884":13666,"every":13667,"programa":13668,"xi":13669,"started":13670,"yra":13671,"##\u0ba4":13672,"dapat":13673,"forst":13674,"queen":13675,"\u0643\u0627\u0646\u062a":13676,"canh":13677,"160":13678,"superficie":13679,"##rin":13680,"stata":13681,"annee":13682,"bahasa":13683,
[...]
